<pad>	0
<unk>	0
<s>	0
</s>	0
▁t	-0
in	-1
▁a	-2
he	-3
on	-4
er	-5
▁the	-6
▁s	-7
re	-8
at	-9
nd	-10
▁o	-11
ed	-12
es	-13
ar	-14
▁w	-15
ing	-16
is	-17
en	-18
▁p	-19
▁in	-20
▁c	-21
al	-22
or	-23
▁of	-24
it	-25
ion	-26
▁m	-27
ic	-28
▁and	-29
an	-30
as	-31
▁f	-32
▁b	-33
ro	-34
le	-35
▁to	-36
st	-37
▁d	-38
▁T	-39
▁C	-40
la	-41
▁A	-42
▁I	-43
ou	-44
▁S	-45
ent	-46
el	-47
om	-48
ct	-49
▁h	-50
▁is	-51
ol	-52
▁on	-53
ation	-54
et	-55
▁re	-56
▁1	-57
ir	-58
iv	-59
▁e	-60
il	-61
ch	-62
ut	-63
am	-64
▁g	-65
▁n	-66
▁H	-67
▁was	-68
▁2	-69
▁(	-70
▁as	-71
ly	-72
▁J	-73
▁In	-74
▁P	-75
ers	-76
▁The	-77
▁M	-78
est	-79
id	-80
ad	-81
ag	-82
▁he	-83
▁B	-84
ig	-85
▁19	-86
te	-87
▁G	-88
ra	-89
▁l	-90
▁20	-91
▁th	-92
▁L	-93
ction	-94
us	-95
▁wh	-96
▁pro	-97
im	-98
▁U	-99
str	-100
▁R	-101
her	-102
lu	-103
▁W	-104
ec	-105
un	-106
▁D	-107
▁F	-108
▁V	-109
xt	-110
ak	-111
ment	-112
ce	-113
ow	-114
ong	-115
▁at	-116
▁st	-117
land	-118
▁for	-119
op	-120
▁it	-121
uction	-122
ur	-123
ort	-124
▁an	-125
▁com	-126
ot	-127
ark	-128
ver	-129
▁al	-130
▁be	-131
▁are	-132
pp	-133
▁K	-134
ard	-135
ine	-136
ore	-137
ter	-138
▁su	-139
ally	-140
onte	-141
ontext	-142
ck	-143
art	-144
ary	-145
ith	-146
▁Instr	-147
▁Context	-148
▁Instruction	-149
ay	-150
ul	-151
▁N	-152
ate	-153
ist	-154
se	-155
ess	-156
rom	-157
▁by	-158
▁v	-159
ber	-160
ies	-161
▁le	-162
irst	-163
▁that	-164
▁first	-165
▁from	-166
▁with	-167
are	-168
ell	-169
ity	-170
▁St	-171
▁or	-172
▁sp	-173
▁con	-174
▁whe	-175
▁E	-176
ial	-177
▁He	-178
▁de	-179
▁man	-180
▁"	-181
cho	-182
oun	-183
▁ch	-184
ther	-185
chool	-186
if	-187
ph	-188
th	-189
ts	-190
ish	-191
ive	-192
▁se	-193
ated	-194
arket	-195
lands	-196
ip	-197
um	-198
ect	-199
gin	-200
ich	-201
▁ex	-202
ap	-203
ia	-204
▁3	-205
age	-206
ict	-207
igh	-208
les	-209
ord	-210
our	-211
ust	-212
▁Un	-213
▁ab	-214
▁pe	-215
▁sc	-216
▁so	-217
ates	-218
▁Vir	-219
▁inc	-220
▁Virgin	-221
em	-222
ge	-223
▁k	-224
lic	-225
res	-226
▁pla	-227
▁ha	-228
▁mo	-229
▁ro	-230
▁te	-231
▁200	-232
▁comm	-233
▁which	-234
ew	-235
hed	-236
lud	-237
▁other	-238
ax	-239
os	-240
ue	-241
ve	-242
ign	-243
orn	-244
out	-245
▁us	-246
ions	-247
ited	-248
▁196	-249
▁clu	-250
▁one	-251
▁sing	-252
▁includ	-253
arketing	-254
ab	-255
ft	-256
ie	-257
ik	-258
ld	-259
oo	-260
▁y	-261
ame	-262
amp	-263
ant	-264
ass	-265
ill	-266
▁ma	-267
ning	-268
▁his	-269
▁per	-270
▁play	-271
gh	-272
oc	-273
ub	-274
up	-275
ake	-276
ast	-277
ced	-278
han	-279
ire	-280
ond	-281
rit	-282
▁Is	-283
▁Jo	-284
▁Wh	-285
cord	-286
ware	-287
▁202	-288
▁app	-289
▁col	-290
▁dat	-291
▁her	-292
▁off	-293
▁cons	-294
),	-295
gu	-296
ome	-297
ure	-298
ved	-299
▁Ch	-300
▁It	-301
▁Le	-302
▁201	-303
▁but	-304
▁club	-305
▁about	-306
▁School	-307
▁States	-308
▁United	-309
).	-310
ey	-311
ff	-312
ha	-313
▁O	-314
all	-315
ely	-316
for	-317
oin	-318
und	-319
▁Au	-320
▁ar	-321
▁go	-322
ival	-323
iven	-324
utom	-325
▁199	-326
▁not	-327
▁sec	-328
▁who	-329
▁when	-330
ations	-331
ftware	-332
estival	-333
▁Islands	-334
00	-335
du	-336
qu	-337
ty	-338
ud	-339
▁-	-340
ays	-341
ide	-342
mer	-343
ned	-344
per	-345
rin	-346
vel	-347
▁Ar	-348
▁en	-349
▁km	-350
ased	-351
form	-352
raph	-353
▁Tax	-354
▁gen	-355
▁she	-356
ublic	-357
▁lear	-358
▁more	-359
▁part	-360
▁manag	-361
▁where	-362
▁festival	-363
▁software	-364
ks	-365
og	-366
ze	-367
▁Y	-368
arg	-369
ari	-370
ear	-371
eed	-372
ens	-373
fer	-374
imp	-375
ins	-376
ley	-377
▁Re	-378
▁me	-379
▁tr	-380
anut	-381
ight	-382
ople	-383
ored	-384
ward	-385
▁cre	-386
▁its	-387
ading	-388
ating	-389
ering	-390
ually	-391
▁Coun	-392
▁comp	-393
▁data	-394
▁record	-395
▁school	-396
▁single	-397
19	-398
7,	-399
ac	-400
hn	-401
pr	-402
so	-403
▁4	-404
▁6	-405
lat	-406
old	-407
ory	-408
ton	-409
▁cl	-410
▁tw	-411
cess	-412
fter	-413
ical	-414
ough	-415
▁Van	-416
▁ass	-417
▁can	-418
▁has	-419
▁reg	-420
▁have	-421
▁song	-422
▁this	-423
ington	-424
▁their	-425
▁second	-426
utomation	-427
VM	-428
gr	-429
▁j	-430
▁r	-431
ack	-432
ase	-433
ath	-434
but	-435
eld	-436
gan	-437
ice	-438
ike	-439
ime	-440
law	-441
ork	-442
pal	-443
ues	-444
uly	-445
▁De	-446
ague	-447
berg	-448
ence	-449
eral	-450
ific	-451
▁Pro	-452
▁def	-453
▁des	-454
▁inv	-455
stral	-456
uring	-457
velop	-458
▁Gold	-459
▁many	-460
▁such	-461
ically	-462
ustard	-463
▁Given	-464
▁peanut	-465
▁people	-466
▁public	-467
▁Austral	-468
▁islands	-469
▁Goldberg	-470
▁learning	-471
▁Marketing	-472
0.	-473
2,	-474
ain	-475
ces	-476
ici	-477
low	-478
min	-479
one	-480
ous	-481
rap	-482
ted	-483
▁An	-484
▁Ro	-485
▁Th	-486
▁US	-487
▁ev	-488
arch	-489
dict	-490
ield	-491
istr	-492
line	-493
olla	-494
ould	-495
oung	-496
ourt	-497
port	-498
tern	-499
uary	-500
ular	-501
▁Jan	-502
▁New	-503
▁SVM	-504
▁dec	-505
▁did	-506
▁gro	-507
▁int	-508
▁met	-509
▁par	-510
▁pre	-511
▁tra	-512
▁two	-513
▁won	-514
ively	-515
ivers	-516
meric	-517
pport	-518
▁Brit	-519
▁John	-520
▁July	-521
▁Mary	-522
▁Park	-523
▁What	-524
▁time	-525
▁what	-526
▁year	-527
▁Court	-528
▁after	-529
▁chart	-530
▁class	-531
ational	-532
▁Americ	-533
▁League	-534
▁commun	-535
▁design	-536
▁scored	-537
▁British	-538
▁develop	-539
▁include	-540
▁schools	-541
▁Maryland	-542
▁managers	-543
▁Australia	-544
▁marketing	-545
▁Automation	-546
1,	-547
br	-548
mi	-549
ms	-550
pt	-551
yp	-552
za	-553
ach	-554
and	-555
che	-556
dle	-557
gor	-558
hah	-559
jor	-560
man	-561
non	-562
own	-563
pro	-564
spr	-565
ten	-566
til	-567
ual	-568
ult	-569
vin	-570
▁Al	-571
▁ag	-572
▁do	-573
▁pl	-574
▁sh	-575
▁si	-576
▁un	-577
akes	-578
enal	-579
▁ann	-580
▁bro	-581
▁dis	-582
▁law	-583
▁mph	-584
▁mus	-585
▁tas	-586
▁typ	-587
▁und	-588
▁use	-589
athon	-590
ember	-591
erson	-592
iddle	-593
ional	-594
olved	-595
paloo	-596
▁Shah	-597
▁also	-598
▁born	-599
▁cent	-600
▁ever	-601
▁grap	-602
▁hack	-603
▁long	-604
▁most	-605
▁name	-606
▁seed	-607
▁spec	-608
▁they	-609
▁vari	-610
spring	-611
▁Lolla	-612
▁March	-613
▁being	-614
▁colle	-615
▁decis	-616
▁eight	-617
▁event	-618
▁examp	-619
▁under	-620
▁Provin	-621
▁butter	-622
▁comple	-623
▁played	-624
iversity	-625
▁station	-626
▁support	-627
▁American	-628
▁offspring	-629
▁Lollapaloo	-630
",	-631
av	-632
ds	-633
ih	-634
io	-635
iz	-636
ke	-637
ob	-638
ry	-639
act	-640
ail	-641
amm	-642
ang	-643
ble	-644
bre	-645
cle	-646
erv	-647
ick	-648
lab	-649
put	-650
sel	-651
sem	-652
uil	-653
ury	-654
ven	-655
▁Ad	-656
▁UK	-657
▁ac	-658
▁ed	-659
▁fe	-660
▁ra	-661
▁sy	-662
▁we	-663
Shan	-664
angu	-665
cial	-666
ider	-667
igin	-668
ihar	-669
ised	-670
nded	-671
orth	-672
vern	-673
▁Ars	-674
▁Ken	-675
▁Whe	-676
▁air	-677
▁bec	-678
▁eff	-679
▁eng	-680
▁est	-681
▁fun	-682
▁had	-683
▁how	-684
▁imp	-685
▁loc	-686
▁mat	-687
▁new	-688
▁out	-689
▁ret	-690
▁top	-691
▁win	-692
ative	-693
ector	-694
ident	-695
oined	-696
▁been	-697
▁care	-698
▁days	-699
▁each	-700
▁four	-701
▁goal	-702
▁home	-703
▁larg	-704
▁mach	-705
▁sent	-706
▁text	-707
▁vict	-708
▁well	-709
asting	-710
semary	-711
▁Tihar	-712
▁award	-713
▁based	-714
▁debut	-715
▁refer	-716
▁seeds	-717
▁tasks	-718
Shannon	-719
anguage	-720
▁Middle	-721
▁commit	-722
▁consum	-723
▁market	-724
▁person	-725
▁vector	-726
resident	-727
▁January	-728
▁Reading	-729
▁largest	-730
▁mustard	-731
▁process	-732
ification	-733
▁National	-734
▁function	-735
▁involved	-736
▁DeShannon	-737
▁University	-738
▁development	-739
▁Lollapalooza	-740
▁classification	-741
.,	-742
1.	-743
21	-744
5.	-745
84	-746
VI	-747
ai	-748
de	-749
ja	-750
ne	-751
ng	-752
tr	-753
wn	-754
yl	-755
ada	-756
apn	-757
cip	-758
dit	-759
een	-760
etw	-761
hip	-762
icy	-763
ied	-764
ita	-765
ite	-766
pen	-767
uja	-768
ups	-769
way	-770
▁(1	-771
▁16	-772
▁AI	-773
▁Ac	-774
▁As	-775
▁No	-776
▁Pe	-777
▁ad	-778
▁et	-779
▁kn	-780
▁sm	-781
amed	-782
cher	-783
ding	-784
fore	-785
icip	-786
ines	-787
ings	-788
ject	-789
nedy	-790
olic	-791
omer	-792
onic	-793
pect	-794
rant	-795
reas	-796
ress	-797
shed	-798
urze	-799
vers	-800
▁Arl	-801
▁Can	-802
▁Com	-803
▁Eil	-804
▁Eng	-805
▁Her	-806
▁Was	-807
▁Who	-808
▁cap	-809
▁ear	-810
▁ess	-811
▁fol	-812
▁mar	-813
▁mod	-814
▁num	-815
▁pit	-816
▁pop	-817
▁suc	-818
ainst	-819
apnik	-820
breed	-821
duced	-822
enced	-823
ester	-824
field	-825
gramm	-826
inary	-827
inger	-828
inson	-829
oints	-830
ption	-831
▁1964	-832
▁Bill	-833
▁Hong	-834
▁Kong	-835
▁They	-836
▁York	-837
▁argu	-838
▁best	-839
▁bicy	-840
▁cate	-841
▁form	-842
▁high	-843
▁open	-844
▁over	-845
▁prin	-846
▁requ	-847
▁rock	-848
▁shed	-849
▁simp	-850
▁stop	-851
▁take	-852
▁team	-853
▁tend	-854
▁then	-855
▁wine	-856
agraph	-857
ention	-858
mented	-859
ograph	-860
though	-861
▁1967,	-862
▁Distr	-863
▁Furze	-864
▁appro	-865
▁began	-866
▁every	-867
▁gener	-868
▁inter	-869
▁major	-870
▁moved	-871
▁music	-872
▁named	-873
▁small	-874
duction	-875
▁Eilish	-876
▁Vapnik	-877
▁engine	-878
▁follow	-879
▁govern	-880
▁grapes	-881
▁origin	-882
▁points	-883
▁proble	-884
breeding	-885
▁Arsenal	-886
▁Kennedy	-887
▁Stinger	-888
▁against	-889
▁bicycle	-890
▁perform	-891
▁princip	-892
▁regular	-893
▁seconds	-894
▁victory	-895
mentation	-896
▁annually	-897
▁language	-898
▁programm	-899
▁Arlington	-900
▁community	-901
▁decisions	-902
▁including	-903
▁paragraph	-904
▁reference	-905
▁government	-906
▁engineering	-907
0,	-908
3,	-909
6,	-910
97	-911
bs	-912
co	-913
eg	-914
ep	-915
ho	-916
ll	-917
tt	-918
uc	-919
▁5	-920
▁7	-921
▁Z	-922
ace	-923
ade	-924
ago	-925
alt	-926
bum	-927
cil	-928
dim	-929
ean	-930
end	-931
ene	-932
ere	-933
ets	-934
ett	-935
ian	-936
ild	-937
ise	-938
itu	-939
itz	-940
lag	-941
lis	-942
lit	-943
lue	-944
mar	-945
mot	-946
nel	-947
ola	-948
onn	-949
ook	-950
ost	-951
pec	-952
pos	-953
rad	-954
ris	-955
tak	-956
uch	-957
▁3.	-958
▁36	-959
▁Cy	-960
▁Tr	-961
▁ph	-962
▁qu	-963
able	-964
adem	-965
ants	-966
ater	-967
ball	-968
gust	-969
inus	-970
itig	-971
ives	-972
lish	-973
omet	-974
ouse	-975
pped	-976
raud	-977
rick	-978
rink	-979
stem	-980
sues	-981
udge	-982
uren	-983
▁193	-984
▁195	-985
▁Att	-986
▁Cup	-987
▁Fed	-988
▁Gor	-989
▁How	-990
▁Kia	-991
▁Per	-992
▁Pre	-993
▁Run	-994
▁Tom	-995
▁Zyl	-996
▁all	-997
▁bas	-998
▁dif	-999
▁dom	-1000
▁end	-1001
▁exp	-1002
▁fam	-1003
▁fer	-1004
▁may	-1005
▁mid	-1006
▁mon	-1007
▁non	-1008
▁ple	-1009
▁rel	-1010
▁res	-1011
ached	-1012
ermin	-1013
ganiz	-1014
icago	-1015
igned	-1016
ining	-1017
istic	-1018
itive	-1019
ivial	-1020
labor	-1021
moted	-1022
oring	-1023
orney	-1024
uilty	-1025
veral	-1026
▁City	-1027
▁Hill	-1028
▁Jack	-1029
▁Spec	-1030
▁This	-1031
▁Tort	-1032
▁Wash	-1033
▁When	-1034
▁atte	-1035
▁betw	-1036
▁chan	-1037
▁coun	-1038
▁cust	-1039
▁does	-1040
▁educ	-1041
▁grad	-1042
▁held	-1043
▁made	-1044
▁mult	-1045
▁need	-1046
▁only	-1047
▁oper	-1048
▁rele	-1049
▁side	-1050
▁tell	-1051
▁than	-1052
▁used	-1053
▁were	-1054
▁wire	-1055
▁work	-1056
ensive	-1057
gorith	-1058
icient	-1059
verage	-1060
▁2021,	-1061
▁Award	-1062
▁Buren	-1063
▁Litig	-1064
▁Trial	-1065
▁Young	-1066
▁along	-1067
▁charg	-1068
▁child	-1069
▁could	-1070
▁drink	-1071
▁fraud	-1072
▁given	-1073
▁known	-1074
▁model	-1075
▁relat	-1076
▁rider	-1077
▁somet	-1078
▁speed	-1079
▁start	-1080
▁track	-1081
▁until	-1082
▁years	-1083
▁young	-1084
cording	-1085
fielder	-1086
▁August	-1087
▁applic	-1088
▁before	-1089
▁during	-1090
▁guilty	-1091
▁inform	-1092
▁issues	-1093
▁joined	-1094
▁manage	-1095
▁offici	-1096
▁others	-1097
▁player	-1098
▁system	-1099
▁Chicago	-1100
▁Council	-1101
▁Counsel	-1102
▁Federal	-1103
▁Special	-1104
▁Tortola	-1105
▁airline	-1106
▁between	-1107
▁century	-1108
▁complex	-1109
▁machine	-1110
▁organiz	-1111
▁pitcher	-1112
▁project	-1113
▁reached	-1114
▁scoring	-1115
▁several	-1116
▁success	-1117
▁trivial	-1118
▁winning	-1119
▁Attorney	-1120
▁District	-1121
▁algorith	-1122
▁argument	-1123
▁collabor	-1124
▁customer	-1125
▁examples	-1126
▁promoted	-1127
▁Parkinson	-1128
▁designers	-1129
▁education	-1130
▁efficient	-1131
▁following	-1132
▁hackathon	-1133
▁marketers	-1134
▁typically	-1135
▁Litigation	-1136
▁Provincial	-1137
▁Washington	-1138
▁collection	-1139
▁midfielder	-1140
▁relatively	-1141
▁information	-1142
$1	-1143
03	-1144
0–	-1145
20	-1146
4,	-1147
5,	-1148
69	-1149
8,	-1150
8.	-1151
LS	-1152
RM	-1153
bl	-1154
bo	-1155
lo	-1156
ok	-1157
sh	-1158
sw	-1159
to	-1160
uy	-1161
ys	-1162
▁–	-1163
-19	-1164
00,	-1165
BVI	-1166
acy	-1167
adl	-1168
ans	-1169
cus	-1170
eas	-1171
ele	-1172
eng	-1173
eor	-1174
fit	-1175
ful	-1176
hai	-1177
ham	-1178
hel	-1179
hes	-1180
ida	-1181
ief	-1182
ile	-1183
ilm	-1184
ily	-1185
ind	-1186
iss	-1187
ize	-1188
led	-1189
let	-1190
mit	-1191
oke	-1192
ono	-1193
osp	-1194
oth	-1195
oto	-1196
pet	-1197
pir	-1198
ree	-1199
ren	-1200
rim	-1201
ugh	-1202
▁(/	-1203
▁0.	-1204
▁2.	-1205
▁24	-1206
▁30	-1207
▁31	-1208
▁61	-1209
▁FC	-1210
▁Ma	-1211
▁am	-1212
▁fr	-1213
▁ge	-1214
▁mi	-1215
▁no	-1216
Conn	-1217
abil	-1218
aign	-1219
ales	-1220
ards	-1221
arge	-1222
arre	-1223
ason	-1224
atin	-1225
bers	-1226
born	-1227
ceed	-1228
cent	-1229
ches	-1230
chie	-1231
cuss	-1232
duct	-1233
ells	-1234
ered	-1235
ever	-1236
gest	-1237
here	-1238
hods	-1239
iber	-1240
ices	-1241
ient	-1242
iest	-1243
illa	-1244
imes	-1245
ince	-1246
inor	-1247
ired	-1248
ital	-1249
itzs	-1250
ived	-1251
lect	-1252
miss	-1253
nder	-1254
ness	-1255
ocus	-1256
olog	-1257
omor	-1258
orld	-1259
puts	-1260
ract	-1261
reat	-1262
reen	-1263
rend	-1264
sell	-1265
umam	-1266
ured	-1267
usin	-1268
utch	-1269
west	-1270
▁(19	-1271
▁100	-1272
▁197	-1273
▁198	-1274
▁Eas	-1275
▁Gen	-1276
▁Guy	-1277
▁His	-1278
▁Hot	-1279
▁Inc	-1280
▁Ind	-1281
▁Jon	-1282
▁MLS	-1283
▁Mat	-1284
▁Mun	-1285
▁Nov	-1286
▁Off	-1287
▁Pol	-1288
▁Ros	-1289
▁Tow	-1290
▁acc	-1291
▁bel	-1292
▁big	-1293
▁ham	-1294
▁hit	-1295
▁ind	-1296
▁pur	-1297
▁ros	-1298
▁ser	-1299
▁six	-1300
▁sug	-1301
▁sum	-1302
▁too	-1303
▁vis	-1304
ablis	-1305
actor	-1306
ademy	-1307
agues	-1308
aking	-1309
anger	-1310
anley	-1311
asets	-1312
ather	-1313
board	-1314
elebr	-1315
eorge	-1316
ially	-1317
ilway	-1318
irect	-1319
ities	-1320
liter	-1321
ondon	-1322
ousew	-1323
perts	-1324
rison	-1325
ronic	-1326
stand	-1327
stone	-1328
taker	-1329
tries	-1330
ustin	-1331
▁1963	-1332
▁2000	-1333
▁2012	-1334
▁2022	-1335
▁Base	-1336
▁Bono	-1337
▁High	-1338
▁Jard	-1339
▁Jose	-1340
▁Pins	-1341
▁bene	-1342
▁bike	-1343
▁camp	-1344
▁died	-1345
▁feat	-1346
▁film	-1347
▁inte	-1348
▁into	-1349
▁last	-1350
▁lead	-1351
▁line	-1352
▁main	-1353
▁make	-1354
▁meet	-1355
▁mist	-1356
▁much	-1357
▁puja	-1358
▁same	-1359
▁sibl	-1360
▁situ	-1361
▁stat	-1362
▁stud	-1363
▁test	-1364
▁vers	-1365
▁wide	-1366
▁writ	-1367
abolic	-1368
ective	-1369
eedles	-1370
ferent	-1371
inally	-1372
istant	-1373
lement	-1374
manent	-1375
mitted	-1376
piracy	-1377
▁1992,	-1378
▁Chart	-1379
▁Dutch	-1380
▁Grant	-1381
▁Komor	-1382
▁Kumam	-1383
▁Latin	-1384
▁Nitzs	-1385
▁North	-1386
▁There	-1387
▁These	-1388
▁Under	-1389
▁achie	-1390
▁album	-1391
▁areas	-1392
▁autom	-1393
▁basic	-1394
▁clust	-1395
▁early	-1396
▁estim	-1397
▁focus	-1398
▁gradu	-1399
▁group	-1400
▁level	-1401
▁local	-1402
▁makes	-1403
▁match	-1404
▁minor	-1405
▁money	-1406
▁north	-1407
▁often	-1408
▁pract	-1409
▁repro	-1410
▁since	-1411
▁spend	-1412
▁spoke	-1413
▁state	-1414
▁white	-1415
▁whose	-1416
▁world	-1417
Connell	-1418
ampions	-1419
diction	-1420
eration	-1421
ication	-1422
ministr	-1423
usiness	-1424
▁Austin	-1425
▁Canada	-1426
▁County	-1427
▁Danger	-1428
▁George	-1429
▁Gorley	-1430
▁Housew	-1431
▁Jackie	-1432
▁London	-1433
▁Polley	-1434
▁Public	-1435
▁altern	-1436
▁became	-1437
▁belong	-1438
▁binary	-1439
▁capita	-1440
▁career	-1441
▁celebr	-1442
▁charts	-1443
▁direct	-1444
▁eating	-1445
▁enough	-1446
▁essays	-1447
▁formul	-1448
▁fourth	-1449
▁germin	-1450
▁hamlet	-1451
▁intens	-1452
▁invers	-1453
▁member	-1454
▁number	-1455
▁opened	-1456
▁parish	-1457
▁prison	-1458
▁propos	-1459
▁should	-1460
▁topped	-1461
▁varied	-1462
▁variet	-1463
▁visual	-1464
ablished	-1465
petitive	-1466
shedding	-1467
▁Academy	-1468
▁Eastern	-1469
▁English	-1470
▁Mustard	-1471
▁Stanley	-1472
▁Towards	-1473
▁average	-1474
▁brother	-1475
▁categor	-1476
▁charged	-1477
▁consist	-1478
▁created	-1479
▁discuss	-1480
▁example	-1481
▁learned	-1482
▁methods	-1483
▁popular	-1484
▁proport	-1485
▁railway	-1486
▁related	-1487
▁singles	-1488
▁started	-1489
▁Although	-1490
▁Baseball	-1491
▁Komorida	-1492
▁Kumamoto	-1493
▁Nitzsche	-1494
▁November	-1495
▁Province	-1496
▁Rosemary	-1497
▁automate	-1498
▁campaign	-1499
▁datasets	-1500
▁everyone	-1501
▁geograph	-1502
▁includes	-1503
▁particip	-1504
▁personal	-1505
▁problems	-1506
▁produced	-1507
▁recorded	-1508
▁siblings	-1509
▁training	-1510
ampionship	-1511
▁Billboard	-1512
▁Johnstone	-1513
▁President	-1514
▁algorithm	-1515
▁commented	-1516
▁countries	-1517
▁defensive	-1518
▁festivals	-1519
▁generally	-1520
▁germinate	-1521
▁permanent	-1522
▁president	-1523
▁principle	-1524
▁sentenced	-1525
▁celebrated	-1526
▁conspiracy	-1527
▁management	-1528
▁production	-1529
▁successful	-1530
▁triviality	-1531
▁understand	-1532
▁alternative	-1533
▁consumption	-1534
▁established	-1535
▁programmers	-1536
▁formulations	-1537
▁communication	-1538
".	-1539
);	-1540
.6	-1541
13	-1542
5)	-1543
67	-1544
79	-1545
9)	-1546
9.	-1547
91	-1548
aw	-1549
ba	-1550
bb	-1551
ib	-1552
lɪ	-1553
mp	-1554
mə	-1555
nə	-1556
oy	-1557
ps	-1558
ss	-1559
uk	-1560
vi	-1561
ym	-1562
▁&	-1563
/),	-1564
000	-1565
84.	-1566
Bad	-1567
Glo	-1568
Oce	-1569
add	-1570
adi	-1571
air	-1572
aki	-1573
alf	-1574
anc	-1575
app	-1576
aus	-1577
avy	-1578
cea	-1579
chn	-1580
cit	-1581
coh	-1582
cra	-1583
day	-1584
ebr	-1585
elf	-1586
fic	-1587
gal	-1588
gis	-1589
hoo	-1590
iam	-1591
ico	-1592
ics	-1593
ids	-1594
ieg	-1595
ier	-1596
iet	-1597
ify	-1598
ika	-1599
ims	-1600
ink	-1601
ipe	-1602
irl	-1603
isk	-1604
lay	-1605
mon	-1606
nəs	-1607
ony	-1608
opp	-1609
ose	-1610
pan	-1611
par	-1612
pri	-1613
raɪ	-1614
rol	-1615
row	-1616
see	-1617
smə	-1618
sor	-1619
tee	-1620
tem	-1621
uer	-1622
uez	-1623
uit	-1624
ull	-1625
une	-1626
unk	-1627
urt	-1628
ute	-1629
vis	-1630
von	-1631
yde	-1632
yes	-1633
yke	-1634
yle	-1635
ɪlɪ	-1636
–1.	-1637
▁""	-1638
▁(3	-1639
▁(5	-1640
▁0–	-1641
▁1,	-1642
▁12	-1643
▁15	-1644
▁18	-1645
▁21	-1646
▁25	-1647
▁4,	-1648
▁50	-1649
▁60	-1650
▁Bo	-1651
▁Co	-1652
▁Do	-1653
▁Ex	-1654
▁Fo	-1655
▁GT	-1656
▁Hu	-1657
▁LL	-1658
▁MD	-1659
▁Me	-1660
▁Ne	-1661
▁We	-1662
▁ic	-1663
▁if	-1664
▁la	-1665
▁ne	-1666
▁sn	-1667
▁ti	-1668
Gloe	-1669
aked	-1670
aksh	-1671
ames	-1672
ance	-1673
apan	-1674
arew	-1675
aves	-1676
bert	-1677
brid	-1678
ckey	-1679
cote	-1680
cous	-1681
enty	-1682
eter	-1683
face	-1684
fest	-1685
ghai	-1686
gies	-1687
gory	-1688
hern	-1689
hing	-1690
ibut	-1691
icin	-1692
icks	-1693
ifth	-1694
iles	-1695
ined	-1696
inne	-1697
iple	-1698
iver	-1699
ivid	-1700
ivil	-1701
lack	-1702
lago	-1703
less	-1704
lify	-1705
like	-1706
mile	-1707
mosp	-1708
oaki	-1709
olit	-1710
olut	-1711
omes	-1712
ones	-1713
only	-1714
orda	-1715
orks	-1716
osed	-1717
ound	-1718
ours	-1719
ower	-1720
part	-1721
perv	-1722
rael	-1723
rand	-1724
rase	-1725
reak	-1726
ross	-1727
side	-1728
ston	-1729
ties	-1730
tist	-1731
topp	-1732
uals	-1733
ught	-1734
ural	-1735
uter	-1736
utob	-1737
writ	-1738
yles	-1739
▁($1	-1740
▁(/ˈ	-1741
▁(0.	-1742
▁(20	-1743
▁(97	-1744
▁10,	-1745
▁184	-1746
▁192	-1747
▁2.0	-1748
▁269	-1749
▁3.3	-1750
▁Ass	-1751
▁Ben	-1752
▁Ber	-1753
▁But	-1754
▁CRM	-1755
▁Day	-1756
▁Gal	-1757
▁Jen	-1758
▁Lam	-1759
▁Law	-1760
▁Man	-1761
▁Met	-1762
▁Mon	-1763
▁Pat	-1764
▁Rel	-1765
▁Res	-1766
▁Sep	-1767
▁She	-1768
▁Ste	-1769
▁Ter	-1770
▁Tim	-1771
▁Vla	-1772
▁any	-1773
▁cla	-1774
▁cur	-1775
▁day	-1776
▁del	-1777
▁der	-1778
▁det	-1779
▁dig	-1780
▁far	-1781
▁gap	-1782
▁hip	-1783
▁hon	-1784
▁hop	-1785
▁hub	-1786
▁job	-1787
▁low	-1788
▁map	-1789
▁med	-1790
▁opp	-1791
▁pet	-1792
▁pot	-1793
▁put	-1794
▁run	-1795
▁seg	-1796
▁sub	-1797
▁sur	-1798
▁tai	-1799
▁tax	-1800
▁ten	-1801
▁tit	-1802
▁ups	-1803
Ocean	-1804
adium	-1805
adler	-1806
altim	-1807
aribb	-1808
arily	-1809
babil	-1810
berry	-1811
chipe	-1812
craft	-1813
dimir	-1814
duces	-1815
egada	-1816
ellow	-1817
enari	-1818
ences	-1819
enger	-1820
ernel	-1821
erous	-1822
ersey	-1823
esser	-1824
eward	-1825
herit	-1826
heson	-1827
ields	-1828
ilies	-1829
inder	-1830
istor	-1831
label	-1832
oming	-1833
oston	-1834
ource	-1835
ouses	-1836
pects	-1837
pping	-1838
uerto	-1839
uture	-1840
venue	-1841
▁(167	-1842
▁1903	-1843
▁1957	-1844
▁1960	-1845
▁1965	-1846
▁1991	-1847
▁2001	-1848
▁2010	-1849
▁2020	-1850
▁2021	-1851
▁400,	-1852
▁Angu	-1853
▁Bhai	-1854
▁Blue	-1855
▁Chel	-1856
▁Dyke	-1857
▁Eyes	-1858
▁Febr	-1859
▁Ford	-1860
▁From	-1861
▁Hyde	-1862
▁Jane	-1863
▁Jost	-1864
▁Kyle	-1865
▁Lake	-1866
▁Lead	-1867
▁Port	-1868
▁Puja	-1869
▁Real	-1870
▁Rico	-1871
▁Road	-1872
▁SVMs	-1873
▁Salt	-1874
▁Serv	-1875
▁Shan	-1876
▁Some	-1877
▁Tika	-1878
▁West	-1879
▁Wine	-1880
▁abst	-1881
▁anal	-1882
▁answ	-1883
▁appl	-1884
▁blue	-1885
▁book	-1886
▁both	-1887
▁buil	-1888
▁case	-1889
▁cays	-1890
▁cold	-1891
▁come	-1892
▁crim	-1893
▁east	-1894
▁edge	-1895
▁feet	-1896
▁hard	-1897
▁init	-1898
▁less	-1899
▁like	-1900
▁meal	-1901
▁mill	-1902
▁nine	-1903
▁nort	-1904
▁nurt	-1905
▁phys	-1906
▁plat	-1907
▁pony	-1908
▁prot	-1909
▁prov	-1910
▁punk	-1911
▁risk	-1912
▁rode	-1913
▁serv	-1914
▁sett	-1915
▁soil	-1916
▁them	-1917
▁thir	-1918
▁tool	-1919
▁tour	-1920
▁town	-1921
▁uses	-1922
▁whom	-1923
▁will	-1924
action	-1925
akshmi	-1926
arrell	-1927
bridge	-1928
ceived	-1929
cousin	-1930
ential	-1931
estern	-1932
gislat	-1933
icinal	-1934
icipal	-1935
inneas	-1936
lagher	-1937
linear	-1938
miered	-1939
missed	-1940
ointed	-1941
ortant	-1942
parate	-1943
priate	-1944
raphic	-1945
raɪnəs	-1946
reatly	-1947
ritory	-1948
strict	-1949
tember	-1950
tenham	-1951
ternal	-1952
tilles	-1953
usiest	-1954
venues	-1955
writer	-1956
▁1939)	-1957
▁1964.	-1958
▁1976,	-1959
▁1984.	-1960
▁1985.	-1961
▁2010,	-1962
▁2017,	-1963
▁After	-1964
▁Based	-1965
▁Chief	-1966
▁Frick	-1967
▁Gorda	-1968
▁Japan	-1969
▁Judge	-1970
▁Large	-1971
▁Major	-1972
▁Nepal	-1973
▁Overs	-1974
▁Perry	-1975
▁Treas	-1976
▁Where	-1977
▁absor	-1978
▁accel	-1979
▁alcoh	-1980
▁alloc	-1981
▁allow	-1982
▁black	-1983
▁chang	-1984
▁civil	-1985
▁contr	-1986
▁dance	-1987
▁elect	-1988
▁ended	-1989
▁essay	-1990
▁farew	-1991
▁fifth	-1992
▁forms	-1993
▁found	-1994
▁genet	-1995
▁grape	-1996
▁heavy	-1997
▁hours	-1998
▁intro	-1999
▁judge	-2000
▁later	-2001
▁laund	-2002
▁legal	-2003
▁metal	-2004
▁miles	-2005
▁moist	-2006
▁multi	-2007
▁penal	-2008
▁place	-2009
▁plant	-2010
▁plead	-2011
▁polit	-2012
▁popul	-2013
▁quest	-2014
▁races	-2015
▁reass	-2016
▁roles	-2017
▁route	-2018
▁sales	-2019
▁sells	-2020
▁seven	-2021
▁short	-2022
▁snack	-2023
▁space	-2024
▁takes	-2025
▁techn	-2026
▁these	-2027
▁those	-2028
▁three	-2029
▁tires	-2030
▁trend	-2031
▁trial	-2032
▁tries	-2033
▁types	-2034
▁using	-2035
▁while	-2036
actions	-2037
ditions	-2038
ibution	-2039
marinus	-2040
olution	-2041
reasing	-2042
ression	-2043
topping	-2044
▁Baltim	-2045
▁Billie	-2046
▁Boland	-2047
▁Boston	-2048
▁Butter	-2049
▁Caribb	-2050
▁Depart	-2051
▁Income	-2052
▁Indies	-2053
▁Israel	-2054
▁Jersey	-2055
▁Jockey	-2056
▁Joseph	-2057
▁Lesser	-2058
▁Office	-2059
▁Peanut	-2060
▁People	-2061
▁Puerto	-2062
▁Wadler	-2063
▁Wenger	-2064
▁annual	-2065
▁artist	-2066
▁atmosp	-2067
▁change	-2068
▁claims	-2069
▁coined	-2070
▁create	-2071
▁detail	-2072
▁domain	-2073
▁earned	-2074
▁effect	-2075
▁exceed	-2076
▁father	-2077
▁formal	-2078
▁former	-2079
▁genres	-2080
▁groups	-2081
▁histor	-2082
▁houses	-2083
▁iconic	-2084
▁inputs	-2085
▁integr	-2086
▁itself	-2087
▁leaves	-2088
▁linear	-2089
▁making	-2090
▁needed	-2091
▁peaked	-2092
▁petrol	-2093
▁phrase	-2094
▁placed	-2095
▁plants	-2096
▁proper	-2097
▁region	-2098
▁result	-2099
▁retail	-2100
▁scient	-2101
▁screen	-2102
▁season	-2103
▁series	-2104
▁simple	-2105
▁singer	-2106
▁studio	-2107
▁styles	-2108
▁superv	-2109
▁twenty	-2110
▁upsell	-2111
▁within	-2112
▁yellow	-2113
citation	-2114
dictable	-2115
ferences	-2116
heriting	-2117
ividuals	-2118
rosemary	-2119
▁400,000	-2120
▁Anegada	-2121
▁England	-2122
▁Farrell	-2123
▁Fasting	-2124
▁Finneas	-2125
▁General	-2126
▁However	-2127
▁Jardine	-2128
▁Lakshmi	-2129
▁Leeward	-2130
▁Needles	-2131
▁Revenue	-2132
▁Service	-2133
▁Stadium	-2134
▁Timbers	-2135
▁Tomoaki	-2136
▁archipe	-2137
▁aspects	-2138
▁awarded	-2139
▁benefit	-2140
▁brought	-2141
▁collect	-2142
▁debuted	-2143
▁deliber	-2144
▁derives	-2145
▁experts	-2146
▁fasting	-2147
▁feature	-2148
▁graphic	-2149
▁greatly	-2150
▁leading	-2151
▁leagues	-2152
▁located	-2153
▁longest	-2154
▁marinus	-2155
▁matches	-2156
▁meeting	-2157
▁mistake	-2158
▁musical	-2159
▁opposed	-2160
▁outside	-2161
▁percent	-2162
▁playing	-2163
▁problem	-2164
▁product	-2165
▁reactor	-2166
▁reduces	-2167
▁reprodu	-2168
▁request	-2169
▁require	-2170
▁scenari	-2171
▁secured	-2172
▁smaller	-2173
▁special	-2174
▁suggest	-2175
▁usually	-2176
▁version	-2177
▁whether	-2178
▁written	-2179
▁younger	-2180
ationship	-2181
gislative	-2182
pectively	-2183
▁Anguilla	-2184
▁Antilles	-2185
▁Business	-2186
▁February	-2187
▁Internal	-2188
▁Matheson	-2189
▁Overseas	-2190
▁Portland	-2191
▁Resource	-2192
▁Shanghai	-2193
▁Taxation	-2194
▁Treasury	-2195
▁Vladimir	-2196
▁achieved	-2197
▁admitted	-2198
▁aircraft	-2199
▁assigned	-2200
▁attended	-2201
▁category	-2202
▁children	-2203
▁commonly	-2204
▁complete	-2205
▁computer	-2206
▁consider	-2207
▁creating	-2208
▁decision	-2209
▁director	-2210
▁drinking	-2211
▁families	-2212
▁farewell	-2213
▁graduate	-2214
▁hardware	-2215
▁machines	-2216
▁managing	-2217
▁multiple	-2218
▁national	-2219
▁northern	-2220
▁numerous	-2221
▁platform	-2222
▁practice	-2223
▁projects	-2224
▁proposed	-2225
▁restrict	-2226
▁revenues	-2227
▁sentence	-2228
▁separate	-2229
▁services	-2230
▁simplify	-2231
▁situated	-2232
▁specific	-2233
▁youngest	-2234
babilistic	-2235
▁According	-2236
▁Addiction	-2237
▁Administr	-2238
▁Assistant	-2239
▁Baltimore	-2240
▁Caribbean	-2241
▁Gallagher	-2242
▁Municipal	-2243
▁Northcote	-2244
▁September	-2245
▁Territory	-2246
▁according	-2247
▁alcoholic	-2248
▁appointed	-2249
▁arguments	-2250
▁belonging	-2251
▁campaigns	-2252
▁caretaker	-2253
▁commenced	-2254
▁committee	-2255
▁defective	-2256
▁different	-2257
▁dismissed	-2258
▁estimated	-2259
▁fermented	-2260
▁important	-2261
▁initially	-2262
▁interface	-2263
▁inversely	-2264
▁metabolic	-2265
▁nurturing	-2266
▁operating	-2267
▁penalties	-2268
▁performed	-2269
▁political	-2270
▁potential	-2271
▁premiered	-2272
▁processes	-2273
▁protester	-2274
▁questions	-2275
▁something	-2276
▁sometimes	-2277
▁technolog	-2278
▁varieties	-2279
▁Cheltenham	-2280
▁Department	-2281
▁Housewives	-2282
▁absorption	-2283
▁abstention	-2284
▁allocation	-2285
▁atmosphere	-2286
▁automation	-2287
▁categories	-2288
▁clustering	-2289
▁conditions	-2290
▁criminally	-2291
▁electronic	-2292
▁hackathons	-2293
▁historical	-2294
▁inheriting	-2295
▁introduced	-2296
▁laundering	-2297
▁officially	-2298
▁originally	-2299
▁population	-2300
▁principles	-2301
▁reassigned	-2302
▁regression	-2303
▁repetitive	-2304
▁supervised	-2305
▁Legislative	-2306
▁application	-2307
▁appropriate	-2308
▁archipelago	-2309
▁collaborate	-2310
▁discussions	-2311
▁efficiently	-2312
▁functioning	-2313
▁individuals	-2314
▁intensively	-2315
▁programming	-2316
▁relatedness	-2317
▁Championship	-2318
▁applications	-2319
▁fermentation	-2320
▁proportional	-2321
▁segmentation	-2322
▁deliberations	-2323
▁organizations	-2324
▁Administration	-2325
▁geographically	-2326
""	-2327
";	-2328
-1	-2329
-3	-2330
."	-2331
.5	-2332
.9	-2333
.[	-2334
/ˌ	-2335
02	-2336
05	-2337
17	-2338
2-	-2339
2.	-2340
3)	-2341
3.	-2342
4-	-2343
60	-2344
62	-2345
66	-2346
7.	-2347
74	-2348
7[	-2349
81	-2350
83	-2351
85	-2352
AF	-2353
AL	-2354
AR	-2355
Br	-2356
EP	-2357
GW	-2358
HU	-2359
In	-2360
LB	-2361
My	-2362
NL	-2363
No	-2364
OI	-2365
Ox	-2366
PI	-2367
WD	-2368
YE	-2369
ah	-2370
au	-2371
by	-2372
cr	-2373
dd	-2374
df	-2375
dn	-2376
dr	-2377
ek	-2378
ez	-2379
fɪ	-2380
gd	-2381
hi	-2382
hr	-2383
hu	-2384
ix	-2385
km	-2386
kn	-2387
lə	-2388
mn	-2389
nt	-2390
of	-2391
pa	-2392
pe	-2393
pə	-2394
ri	-2395
ru	-2396
sb	-2397
si	-2398
su	-2399
sɪ	-2400
td	-2401
tg	-2402
ug	-2403
wh	-2404
wo	-2405
xh	-2406
ye	-2407
yn	-2408
zə	-2409
–3	-2410
–5	-2411
▁'	-2412
▁[	-2413
▁z	-2414
▁ə	-2415
▁ˌ	-2416
00)	-2417
039	-2418
079	-2419
178	-2420
198	-2421
21,	-2422
35)	-2423
491	-2424
5.2	-2425
82,	-2426
881	-2427
AFC	-2428
Bos	-2429
Cog	-2430
Dor	-2431
HUM	-2432
Hen	-2433
Out	-2434
SVM	-2435
Sin	-2436
Ted	-2437
The	-2438
aby	-2439
ado	-2440
ady	-2441
aky	-2442
amy	-2443
ane	-2444
ann	-2445
anz	-2446
aph	-2447
arb	-2448
asp	-2449
asy	-2450
ata	-2451
atf	-2452
aul	-2453
ava	-2454
big	-2455
bor	-2456
cks	-2457
cow	-2458
cto	-2459
cyl	-2460
dew	-2461
ech	-2462
ela	-2463
elb	-2464
elc	-2465
elo	-2466
enk	-2467
ero	-2468
err	-2469
ffc	-2470
fla	-2471
gar	-2472
get	-2473
hem	-2474
hil	-2475
ibe	-2476
ica	-2477
idp	-2478
ili	-2479
ilv	-2480
ina	-2481
ino	-2482
ior	-2483
iox	-2484
itt	-2485
ked	-2486
ksh	-2487
lan	-2488
lap	-2489
lea	-2490
lum	-2491
lvi	-2492
lyr	-2493
mun	-2494
nda	-2495
ner	-2496
not	-2497
nts	-2498
obe	-2499
63)	-2500
802	-2501
97;	-2502
emp	-2503
fax	-2504
gue	-2505
ife	-2506
mph	-2507
ocu	-2508
oka	-2509
oll	-2510
ood	-2511
otl	-2512
oul	-2513
ove	-2514
ows	-2515
pat	-2516
ped	-2517
pla	-2518
ple	-2519
ram	-2520
raw	-2521
ray	-2522
rew	-2523
rey	-2524
ric	-2525
rid	-2526
rov	-2527
rub	-2528
run	-2529
tin	-2530
typ	-2531
uid	-2532
uku	-2533
ulk	-2534
unt	-2535
urg	-2536
uro	-2537
via	-2538
vir	-2539
whe	-2540
xim	-2541
ydn	-2542
yth	-2543
yze	-2544
▁$1	-2545
▁(2	-2546
▁/ˌ	-2547
▁10	-2548
▁13	-2549
▁14	-2550
▁22	-2551
▁32	-2552
▁33	-2553
▁AT	-2554
▁Ab	-2555
▁Am	-2556
▁CO	-2557
▁Cl	-2558
▁Dr	-2559
▁FA	-2560
▁FY	-2561
▁Fr	-2562
▁Gh	-2563
▁Gl	-2564
▁Go	-2565
▁If	-2566
▁Ir	-2567
▁Je	-2568
▁Jr	-2569
▁Kr	-2570
▁Or	-2571
▁Sh	-2572
▁Sm	-2573
▁So	-2574
▁Sw	-2575
▁TV	-2576
▁VC	-2577
▁Va	-2578
▁Ye	-2579
▁bi	-2580
▁br	-2581
▁bu	-2582
▁co	-2583
▁em	-2584
▁li	-2585
▁nu	-2586
▁pu	-2587
▁sk	-2588
00).	-2589
19),	-2590
2013	-2591
700,	-2592
796,	-2593
8,05	-2594
Bhai	-2595
Ever	-2596
July	-2597
Park	-2598
Wake	-2599
"),	-2600
').	-2601
8).	-2602
ARU	-2603
aff	-2604
hab	-2605
hqu	-2606
lps	-2607
oci	-2608
oof	-2609
sup	-2610
vie	-2611
▁48	-2612
▁up	-2613
Your	-2614
abor	-2615
aces	-2616
ader	-2617
ages	-2618
ains	-2619
aled	-2620
alif	-2621
also	-2622
alth	-2623
alue	-2624
amag	-2625
amba	-2626
amew	-2627
amic	-2628
ands	-2629
ange	-2630
apis	-2631
aple	-2632
ared	-2633
aret	-2634
aron	-2635
ases	-2636
asha	-2637
asso	-2638
asts	-2639
aten	-2640
atiz	-2641
ator	-2642
away	-2643
axim	-2644
ayre	-2645
bors	-2646
bset	-2647
bust	-2648
cept	-2649
ciet	-2650
cing	-2651
cker	-2652
clud	-2653
ctiv	-2654
ecil	-2655
edit	-2656
edly	-2657
emic	-2658
enly	-2659
entu	-2660
erms	-2661
erts	-2662
etts	-2663
etty	-2664
fast	-2665
fect	-2666
fess	-2667
flav	-2668
hank	-2669
heap	-2670
hill	-2671
ials	-2672
iano	-2673
iche	-2674
ides	-2675
idth	-2676
iego	-2677
igns	-2678
igra	-2679
ilar	-2680
ilot	-2681
imet	-2682
ingu	-2683
init	-2684
inth	-2685
irav	-2686
irth	-2687
ists	-2688
itly	-2689
itte	-2690
itut	-2691
itzg	-2692
khan	-2693
lawn	-2694
lder	-2695
leen	-2696
leet	-2697
lica	-2698
lice	-2699
.7,	-2700
19,	-2701
ahn	-2702
dog	-2703
mpt	-2704
21),	-2705
Bike	-2706
acet	-2707
bike	-2708
enza	-2709
gran	-2710
hnic	-2711
latt	-2712
loye	-2713
lviə	-2714
mann	-2715
mant	-2716
mark	-2717
merc	-2718
mier	-2719
more	-2720
ndez	-2721
ocks	-2722
olds	-2723
olor	-2724
olve	-2725
omas	-2726
omic	-2727
oods	-2728
orse	-2729
otor	-2730
ount	-2731
outh	-2732
oyed	-2733
pass	-2734
peri	-2735
pril	-2736
rate	-2737
rint	-2738
risb	-2739
roir	-2740
rous	-2741
rove	-2742
sequ	-2743
serv	-2744
sett	-2745
sigh	-2746
ster	-2747
take	-2748
teau	-2749
ting	-2750
town	-2751
uity	-2752
ukur	-2753
ults	-2754
umes	-2755
upil	-2756
ushu	-2757
usic	-2758
vant	-2759
ving	-2760
wart	-2761
wide	-2762
wing	-2763
xing	-2764
ysis	-2765
▁(/ˌ	-2766
▁(0–	-2767
▁(38	-2768
▁(58	-2769
▁167	-2770
▁17,	-2771
▁18,	-2772
▁19,	-2773
▁190	-2774
▁22,	-2775
▁28.	-2776
▁3.1	-2777
▁3.8	-2778
▁35,	-2779
▁4.6	-2780
▁4.9	-2781
▁API	-2782
▁All	-2783
▁And	-2784
▁Bro	-2785
▁Car	-2786
▁Cla	-2787
▁Con	-2788
▁Dan	-2789
▁Dec	-2790
▁Des	-2791
▁Die	-2792
▁Dif	-2793
▁Don	-2794
▁Dor	-2795
▁EYE	-2796
▁Eff	-2797
▁Emp	-2798
▁Eun	-2799
-21	-2800
VID	-2801
iod	-2802
▁84	-2803
Cogn	-2804
iety	-2805
ized	-2806
othy	-2807
pute	-2808
ratf	-2809
self	-2810
▁(12	-2811
▁164	-2812
▁Adv	-2813
▁BVI	-2814
▁Fag	-2815
▁For	-2816
▁Gai	-2817
▁Gob	-2818
▁Gun	-2819
▁Har	-2820
▁Hou	-2821
▁Its	-2822
▁Jun	-2823
▁Kag	-2824
▁Kit	-2825
▁Ltd	-2826
▁May	-2827
▁Mic	-2828
▁Net	-2829
▁Ogd	-2830
▁Pir	-2831
▁Pot	-2832
▁Pty	-2833
▁ROI	-2834
▁Ram	-2835
▁Rap	-2836
▁Red	-2837
▁Ret	-2838
▁San	-2839
▁Sar	-2840
▁Sch	-2841
▁Sem	-2842
▁Sho	-2843
▁Six	-2844
▁Soc	-2845
▁Sum	-2846
▁Top	-2847
▁Vis	-2848
▁age	-2849
▁att	-2850
▁boy	-2851
▁bud	-2852
▁cop	-2853
▁cor	-2854
▁cro	-2855
▁cul	-2856
▁dem	-2857
▁due	-2858
▁eit	-2859
▁eld	-2860
▁ext	-2861
▁fit	-2862
▁get	-2863
▁gre	-2864
▁inf	-2865
▁inn	-2866
▁jun	-2867
▁key	-2868
▁lat	-2869
▁lim	-2870
▁los	-2871
▁lyr	-2872
▁mem	-2873
▁nar	-2874
▁nat	-2875
▁nec	-2876
▁neg	-2877
▁now	-2878
▁own	-2879
▁pos	-2880
▁rap	-2881
▁rev	-2882
▁rid	-2883
▁sea	-2884
▁set	-2885
▁sex	-2886
▁sim	-2887
▁son	-2888
▁sou	-2889
▁spe	-2890
▁ste	-2891
▁ver	-2892
▁web	-2893
▁why	-2894
▁you	-2895
3,491	-2896
Brass	-2897
Liber	-2898
Lolla	-2899
3,6	-2900
4,9	-2901
CRM	-2902
▁70	-2903
▁71	-2904
▁75	-2905
bums	-2906
hook	-2907
leep	-2908
nels	-2909
okie	-2910
onny	-2911
osts	-2912
such	-2913
wise	-2914
▁Ell	-2915
▁Ibs	-2916
▁Ill	-2917
▁Seg	-2918
There	-2919
aches	-2920
achus	-2921
adian	-2922
adlin	-2923
ained	-2924
akers	-2925
aling	-2926
ality	-2927
alled	-2928
amine	-2929
among	-2930
ampsh	-2931
ances	-2932
ancis	-2933
anean	-2934
anies	-2935
annel	-2936
anson	-2937
anted	-2938
apman	-2939
apper	-2940
arest	-2941
arked	-2942
arred	-2943
asing	-2944
astly	-2945
asure	-2946
ately	-2947
ausen	-2948
based	-2949
bined	-2950
bsite	-2951
chers	-2952
ckles	-2953
clear	-2954
dited	-2955
drive	-2956
easts	-2957
eling	-2958
empor	-2959
ensus	-2960
ented	-2961
erald	-2962
estic	-2963
force	-2964
gated	-2965
gress	-2966
hance	-2967
hanol	-2968
hedul	-2969
helin	-2970
herry	-2971
hilip	-2972
house	-2973
iacea	-2974
iamsb	-2975
ickly	-2976
iefly	-2977
iegel	-2978
iesel	-2979
ility	-2980
iment	-2981
iolog	-2982
ioner	-2983
ising	-2984
ittle	-2985
keley	-2986
lapse	-2987
later	-2988
ledge	-2989
levis	-2990
lison	-2991
ments	-2992
nding	-2993
neɪlɪ	-2994
omery	-2995
onder	-2996
ongan	-2997
orest	-2998
ornia	-2999
aird	-3000
ause	-3001
aɪlɪ	-3002
crow	-3003
half	-3004
havi	-3005
hood	-3006
hooj	-3007
ntax	-3008
play	-3009
rent	-3010
▁(50	-3011
▁126	-3012
▁186	-3013
▁6.6	-3014
▁Gym	-3015
▁emp	-3016
▁fib	-3017
green	-3018
ifier	-3019
inked	-3020
layer	-3021
nonym	-3022
ortes	-3023
osely	-3024
ounts	-3025
oural	-3026
ourne	-3027
poses	-3028
ppers	-3029
puter	-3030
quids	-3031
rains	-3032
rough	-3033
round	-3034
rying	-3035
sales	-3036
taken	-3037
tedio	-3038
thern	-3039
thers	-3040
tinue	-3041
uided	-3042
uitar	-3043
urely	-3044
urned	-3045
utobi	-3046
verts	-3047
viron	-3048
vispa	-3049
wheel	-3050
▁$18,	-3051
▁(0.4	-3052
▁(113	-3053
▁0.91	-3054
▁0–2.	-3055
▁100.	-3056
▁1840	-3057
▁1921	-3058
▁1928	-3059
▁1935	-3060
▁1956	-3061
▁1990	-3062
▁1996	-3063
▁1999	-3064
▁2.0-	-3065
▁2002	-3066
▁2013	-3067
▁2015	-3068
▁2023	-3069
▁3.3-	-3070
▁334,	-3071
▁3–1.	-3072
▁4–1.	-3073
▁61–3	-3074
▁7.7,	-3075
▁Airl	-3076
▁Also	-3077
▁Answ	-3078
▁Argu	-3079
▁Asia	-3080
▁Avon	-3081
▁Banc	-3082
▁Bell	-3083
▁Best	-3084
▁Bond	-3085
▁Brid	-3086
▁Bull	-3087
▁CHUM	-3088
▁Cher	-3089
▁Cups	-3090
▁Days	-3091
▁Does	-3092
▁Eart	-3093
▁East	-3094
▁Euro	-3095
▁Ever	-3096
▁Exog	-3097
▁Fair	-3098
▁Fall	-3099
-12	-3100
GWR	-3101
MLB	-3102
▁83	-3103
74).	-3104
SVMs	-3105
fɪsɪ	-3106
ləpə	-3107
ugby	-3108
▁(62	-3109
▁3–5	-3110
▁466	-3111
▁6.5	-3112
▁Cru	-3113
▁RWD	-3114
▁Two	-3115
▁dyn	-3116
▁omn	-3117
1981.	-3118
Boser	-3119
Break	-3120
aphor	-3121
arbon	-3122
enkis	-3123
known	-3124
riage	-3125
sible	-3126
which	-3127
▁(5.2	-3128
▁0.85	-3129
▁0–60	-3130
▁2.2-	-3131
▁61-3	-3132
▁Fame	-3133
▁Foot	-3134
▁Foxh	-3135
▁Gage	-3136
▁Gene	-3137
▁Girl	-3138
▁Goru	-3139
▁Grin	-3140
▁Hack	-3141
▁Hall	-3142
▁Hamm	-3143
▁Happ	-3144
▁Hava	-3145
▁Hosp	-3146
▁Hulu	-3147
▁Jean	-3148
▁Jian	-3149
▁June	-3150
▁Kamp	-3151
▁Kath	-3152
▁Kobe	-3153
▁LAFC	-3154
▁Lady	-3155
▁Look	-3156
▁Maha	-3157
▁Many	-3158
▁Marg	-3159
▁Mass	-3160
▁Mehr	-3161
▁Melb	-3162
▁Octo	-3163
▁Oita	-3164
▁Padd	-3165
▁Pers	-3166
▁Post	-3167
▁Rail	-3168
▁Rath	-3169
▁Rose	-3170
▁Ross	-3171
▁Sear	-3172
▁Silv	-3173
▁Sing	-3174
▁Song	-3175
▁Suez	-3176
▁Sydn	-3177
▁Than	-3178
▁Time	-3179
▁Town	-3180
▁Trin	-3181
▁Whit	-3182
▁Will	-3183
▁Wood	-3184
▁able	-3185
▁alba	-3186
▁arts	-3187
▁atop	-3188
▁baby	-3189
▁back	-3190
▁bann	-3191
▁bioc	-3192
▁bore	-3193
▁came	-3194
▁deep	-3195
▁defe	-3196
▁diam	-3197
▁dram	-3198
▁draw	-3199
8,054	-3200
cribe	-3201
grasp	-3202
idpad	-3203
inois	-3204
pared	-3205
reyer	-3206
ricia	-3207
roves	-3208
▁(269	-3209
▁Delo	-3210
▁Fuku	-3211
▁Jeff	-3212
▁Poul	-3213
▁SARU	-3214
▁Tech	-3215
▁bulk	-3216
▁code	-3217
▁diox	-3218
▁docu	-3219
▁easy	-3220
▁exte	-3221
▁fall	-3222
▁fict	-3223
▁find	-3224
▁five	-3225
▁flow	-3226
▁frag	-3227
▁full	-3228
▁fund	-3229
▁game	-3230
▁gene	-3231
▁gett	-3232
▁give	-3233
▁godf	-3234
▁half	-3235
▁haul	-3236
▁head	-3237
▁heat	-3238
▁herb	-3239
▁hisa	-3240
▁hubs	-3241
▁item	-3242
▁keen	-3243
▁know	-3244
▁left	-3245
▁lies	-3246
▁live	-3247
▁maps	-3248
▁mean	-3249
▁morn	-3250
▁near	-3251
▁netw	-3252
▁ones	-3253
▁padd	-3254
▁pand	-3255
▁pare	-3256
▁pass	-3257
▁pink	-3258
▁plan	-3259
▁pled	-3260
▁plum	-3261
▁pome	-3262
▁port	-3263
▁pres	-3264
▁prim	-3265
▁qual	-3266
▁rese	-3267
▁reve	-3268
▁road	-3269
▁root	-3270
▁sage	-3271
▁sang	-3272
▁sets	-3273
▁size	-3274
▁some	-3275
▁star	-3276
▁sudd	-3277
▁task	-3278
▁thus	-3279
▁tune	-3280
▁type	-3281
▁vine	-3282
▁week	-3283
▁welc	-3284
▁went	-3285
▁zero	-3286
-1935)	-3287
actors	-3288
ademia	-3289
allica	-3290
ampner	-3291
ardhan	-3292
artbre	-3293
ashain	-3294
athons	-3295
atizes	-3296
aulted	-3297
butter	-3298
ceeded	-3299
3,600)	-3300
change	-3301
chased	-3302
cietal	-3303
dicted	-3304
dimens	-3305
diment	-3306
dition	-3307
ducted	-3308
ecilio	-3309
enditu	-3310
engers	-3311
ension	-3312
erates	-3313
ercial	-3314
ergies	-3315
erials	-3316
essary	-3317
estion	-3318
ffcorn	-3319
ficial	-3320
ficult	-3321
hanced	-3322
iaceae	-3323
idence	-3324
iginal	-3325
illage	-3326
ingham	-3327
ionate	-3328
istics	-3329
ituted	-3330
iverse	-3331
khanas	-3332
kshire	-3333
loyees	-3334
minent	-3335
monstr	-3336
munity	-3337
neɪlɪs	-3338
ollary	-3339
omeshi	-3340
onesia	-3341
passed	-3342
pected	-3343
placed	-3344
porter	-3345
profit	-3346
reased	-3347
reases	-3348
sights	-3349
superv	-3350
unters	-3351
verack	-3352
verned	-3353
ything	-3354
▁(0–97	-3355
▁(1881	-3356
▁0.079	-3357
▁1,178	-3358
▁1796,	-3359
▁1840.	-3360
▁1897;	-3361
▁1903.	-3362
▁1904,	-3363
▁1919,	-3364
▁1932,	-3365
▁1955.	-3366
▁1963.	-3367
▁1964,	-3368
▁1977.	-3369
▁1981.	-3370
▁1991,	-3371
▁1993,	-3372
▁1995)	-3373
▁1995,	-3374
▁1997[	-3375
▁2000.	-3376
▁2001)	-3377
▁2001,	-3378
▁2001.	-3379
▁2002,	-3380
▁2003.	-3381
▁2005,	-3382
▁2005.	-3383
▁2006,	-3384
▁2007,	-3385
▁2008.	-3386
▁2009.	-3387
▁2018.	-3388
▁2019.	-3389
▁2020.	-3390
▁2022,	-3391
▁2022.	-3392
▁2023,	-3393
▁About	-3394
▁Addit	-3395
▁Alice	-3396
▁April	-3397
▁Autob	-3398
▁Baird	-3399
▁Bamba	-3400
▁Baron	-3401
▁Brisb	-3402
▁Brook	-3403
▁COVID	-3404
▁Calif	-3405
▁Chili	-3406
▁China	-3407
▁Clark	-3408
▁Color	-3409
▁Cross	-3410
▁Diego	-3411
▁Fitzg	-3412
▁Girav	-3413
▁Glass	-3414
▁Grand	-3415
▁Great	-3416
▁Guyon	-3417
▁Irish	-3418
▁James	-3419
▁Kings	-3420
▁Kukur	-3421
▁Labor	-3422
▁Match	-3423
▁Medit	-3424
▁Montg	-3425
▁Motor	-3426
▁Munch	-3427
▁Music	-3428
▁Nicks	-3429
▁Peter	-3430
▁Petty	-3431
▁Pilot	-3432
▁Platt	-3433
▁Power	-3434
▁River	-3435
▁Rosso	-3436
▁Rugby	-3437
▁Sarah	-3438
▁Sayre	-3439
▁Smile	-3440
▁Sonny	-3441
▁South	-3442
▁Sport	-3443
▁Their	-3444
▁Trend	-3445
▁Until	-3446
▁Which	-3447
▁Wines	-3448
▁Yamag	-3449
▁Yeast	-3450
▁above	-3451
▁activ	-3452
▁agile	-3453
▁agree	-3454
▁aired	-3455
▁alvia	-3456
▁ambig	-3457
▁among	-3458
▁argue	-3459
▁arise	-3460
▁array	-3461
▁asked	-3462
▁avers	-3463
▁basis	-3464
▁begin	-3465
▁birth	-3466
▁brand	-3467
▁break	-3468
▁brown	-3469
▁cases	-3470
▁cheap	-3471
▁chord	-3472
▁const	-3473
▁crops	-3474
▁cross	-3475
▁dhooj	-3476
▁drove	-3477
▁eaten	-3478
▁elder	-3479
▁email	-3480
▁enact	-3481
▁exist	-3482
▁facet	-3483
▁field	-3484
▁fleet	-3485
▁foods	-3486
▁fruit	-3487
▁genes	-3488
▁grown	-3489
▁helps	-3490
▁herbs	-3491
▁holds	-3492
▁honor	-3493
▁horse	-3494
▁hosts	-3495
▁indic	-3496
▁inhab	-3497
▁large	-3498
▁lasts	-3499
▁lingu	-3500
▁lived	-3501
▁maxim	-3502
▁media	-3503
▁month	-3504
▁needs	-3505
▁neigh	-3506
▁niche	-3507
▁night	-3508
▁nigra	-3509
▁ninth	-3510
▁noise	-3511
▁older	-3512
▁overn	-3513
▁pages	-3514
▁peers	-3515
▁piano	-3516
▁plans	-3517
▁power	-3518
▁pupil	-3519
▁rapid	-3520
▁reput	-3521
▁round	-3522
▁score	-3523
▁serve	-3524
▁shows	-3525
▁shrub	-3526
▁singe	-3527
▁solve	-3528
▁specs	-3529
▁spent	-3530
▁spice	-3531
▁spoof	-3532
▁spotl	-3533
▁staff	-3534
▁stage	-3535
▁stake	-3536
▁still	-3537
▁sugar	-3538
▁suite	-3539
▁teams	-3540
▁tends	-3541
▁terms	-3542
▁tests	-3543
▁theme	-3544
▁there	-3545
▁third	-3546
▁times	-3547
▁tools	-3548
▁trans	-3549
▁trick	-3550
▁value	-3551
▁wants	-3552
▁water	-3553
▁width	-3554
▁would	-3555
4,900).	-3556
Dorothy	-3557
Henning	-3558
Liberty	-3559
Needles	-3560
Sinapis	-3561
ability	-3562
akyushu	-3563
atories	-3564
busiest	-3565
cedural	-3566
chester	-3567
cluding	-3568
dicting	-3569
entures	-3570
erminus	-3571
fasting	-3572
fecture	-3573
formers	-3574
gestone	-3575
granate	-3576
hemical	-3577
hquakes	-3578
idering	-3579
ignated	-3580
imetres	-3581
inition	-3582
irement	-3583
istical	-3584
labeled	-3585
lecting	-3586
licated	-3587
licitly	-3588
manteau	-3589
mantics	-3590
marised	-3591
mentary	-3592
ociated	-3593
ography	-3594
patrick	-3595
playing	-3596
proport	-3597
ratford	-3598
rounded	-3599
running	-3600
selling	-3601
sequent	-3602
serving	-3603
support	-3604
terroir	-3605
vantage	-3606
veloped	-3607
vements	-3608
versely	-3609
▁(0.039	-3610
▁(1963)	-3611
▁(1982,	-3612
▁2018).	-3613
▁23,491	-3614
▁28,054	-3615
▁35,802	-3616
▁Albums	-3617
▁Andrew	-3618
▁Ansett	-3619
▁Asleep	-3620
▁Avispa	-3621
▁Census	-3622
▁Chance	-3623
▁Common	-3624
▁Cortes	-3625
▁Danish	-3626
▁Doming	-3627
▁Driver	-3628
▁During	-3629
▁Eunice	-3630
▁Europe	-3631
▁Forest	-3632
▁Future	-3633
▁Hampsh	-3634
▁Ibsley	-3635
▁Junior	-3636
▁Kernel	-3637
▁Kinder	-3638
▁Nether	-3639
▁Ogdens	-3640
▁Others	-3641
▁Philip	-3642
▁Pirate	-3643
▁Player	-3644
▁Rapids	-3645
▁Rapper	-3646
▁Roasso	-3647
▁Robert	-3648
▁Siegel	-3649
▁Smokie	-3650
▁Stevie	-3651
▁Summar	-3652
▁Sydney	-3653
▁Thames	-3654
▁Thomas	-3655
▁Though	-3656
▁Vissel	-3657
▁Wanted	-3658
▁agenda	-3659
▁albums	-3660
▁allows	-3661
▁amount	-3662
▁answer	-3663
▁appear	-3664
▁appell	-3665
▁argues	-3666
▁assess	-3667
▁atomic	-3668
▁autobi	-3669
▁become	-3670
▁behavi	-3671
▁budget	-3672
▁builds	-3673
▁buoyed	-3674
▁called	-3675
▁cannot	-3676
▁carbon	-3677
▁center	-3678
▁centre	-3679
▁cherry	-3680
▁cities	-3681
▁client	-3682
▁copies	-3683
▁county	-3684
▁credit	-3685
▁define	-3686
▁diesel	-3687
▁either	-3688
▁engage	-3689
▁ethnic	-3690
▁events	-3691
▁experi	-3692
▁explan	-3693
▁family	-3694
▁famous	-3695
▁fields	-3696
▁framew	-3697
▁future	-3698
▁gained	-3699
▁ground	-3700
▁guided	-3701
▁guitar	-3702
▁having	-3703
▁impact	-3704
▁income	-3705
▁island	-3706
▁juncea	-3707
▁kernel	-3708
▁league	-3709
▁lining	-3710
▁linked	-3711
▁little	-3712
▁losing	-3713
▁lyrics	-3714
▁mapped	-3715
▁marked	-3716
▁middle	-3717
▁mixing	-3718
▁models	-3719
▁narrow	-3720
▁nation	-3721
▁native	-3722
▁needle	-3723
▁office	-3724
▁omnich	-3725
▁online	-3726
▁opener	-3727
▁period	-3728
▁please	-3729
▁ponder	-3730
▁purely	-3731
▁purple	-3732
▁raised	-3733
▁reason	-3734
▁recent	-3735
▁remark	-3736
▁report	-3737
▁riding	-3738
▁robust	-3739
▁simply	-3740
▁social	-3741
▁solved	-3742
▁spaces	-3743
▁spells	-3744
▁spends	-3745
▁sprint	-3746
▁stands	-3747
▁staple	-3748
▁states	-3749
▁status	-3750
▁strate	-3751
▁subset	-3752
▁summer	-3753
▁syntax	-3754
▁tempor	-3755
▁theory	-3756
▁thirds	-3757
▁though	-3758
▁titled	-3759
▁titles	-3760
▁trains	-3761
▁vastly	-3762
▁victim	-3763
▁wealth	-3764
▁weight	-3765
▁yeasts	-3766
Brassica	-3767
adliners	-3768
although	-3769
cylinder	-3770
erranean	-3771
flavored	-3772
heduling	-3773
iamsburg	-3774
icinalis	-3775
ickshank	-3776
language	-3777
levision	-3778
ographic	-3779
ronicled	-3780
versions	-3781
vonenkis	-3782
ximately	-3783
▁(1974).	-3784
▁(2019),	-3785
▁(2021),	-3786
▁Allison	-3787
▁America	-3788
▁Avonlea	-3789
▁Cecilio	-3790
▁Chapman	-3791
▁Commerc	-3792
▁Commiss	-3793
▁Dashain	-3794
▁Diverse	-3795
▁Empress	-3796
▁Exogamy	-3797
▁Experts	-3798
▁Fairfax	-3799
▁Fording	-3800
▁Francis	-3801
▁Fukuoka	-3802
▁Gunston	-3803
▁Happier	-3804
▁Herbert	-3805
▁Houston	-3806
▁Huckles	-3807
▁Kenmore	-3808
▁Looking	-3809
▁October	-3810
▁Patrick	-3811
▁Peppers	-3812
▁Persela	-3813
▁Potenza	-3814
▁Premier	-3815
▁Profess	-3816
▁Railway	-3817
▁Ramones	-3818
▁Related	-3819
▁Runaway	-3820
▁Schools	-3821
▁Shields	-3822
▁Shocker	-3823
▁Singles	-3824
▁Society	-3825
▁Stewart	-3826
▁Swanson	-3827
▁Through	-3828
▁Trinita	-3829
▁Western	-3830
▁ability	-3831
▁analyze	-3832
▁applied	-3833
▁applies	-3834
▁approve	-3835
▁asserts	-3836
▁assigns	-3837
▁assists	-3838
▁assumes	-3839
▁attempt	-3840
▁banners	-3841
▁because	-3842
▁briefly	-3843
▁broader	-3844
▁busiest	-3845
▁capital	-3846
▁centers	-3847
▁chances	-3848
▁changes	-3849
▁charges	-3850
▁classic	-3851
▁closely	-3852
▁colored	-3853
▁concept	-3854
▁context	-3855
▁creates	-3856
▁currant	-3857
▁current	-3858
▁defined	-3859
▁details	-3860
▁digital	-3861
▁dioxide	-3862
▁dispute	-3863
▁domains	-3864
▁dynamic	-3865
▁element	-3866
▁endless	-3867
▁environ	-3868
▁ethanol	-3869
▁examine	-3870
▁express	-3871
▁factors	-3872
▁feeling	-3873
▁fibrous	-3874
▁finally	-3875
▁fitness	-3876
▁flowers	-3877
▁focuses	-3878
▁funding	-3879
▁general	-3880
▁genetic	-3881
▁getting	-3882
▁greater	-3883
▁growing	-3884
▁hacking	-3885
▁hitting	-3886
▁honored	-3887
▁however	-3888
▁infants	-3889
▁inverse	-3890
▁lateral	-3891
▁limited	-3892
▁liquids	-3893
▁managed	-3894
▁manager	-3895
▁mapping	-3896
▁measure	-3897
▁members	-3898
▁million	-3899
▁morning	-3900
▁natural	-3901
▁nearest	-3902
▁newborn	-3903
▁notable	-3904
▁nuclear	-3905
▁offline	-3906
▁opening	-3907
▁outputs	-3908
▁parents	-3909
▁pitches	-3910
▁pleaded	-3911
▁provide	-3912
▁quickly	-3913
▁reading	-3914
▁reality	-3915
▁release	-3916
▁results	-3917
▁retired	-3918
▁scaling	-3919
▁section	-3920
▁setting	-3921
▁similar	-3922
▁skidpad	-3923
▁starred	-3924
▁steward	-3925
▁stopped	-3926
▁strains	-3927
▁studied	-3928
▁subject	-3929
▁synonym	-3930
▁testing	-3931
▁topping	-3932
▁touring	-3933
▁trading	-3934
▁variety	-3935
▁various	-3936
▁vectors	-3937
▁verdict	-3938
▁village	-3939
▁vinegar	-3940
▁website	-3941
▁western	-3942
▁wherein	-3943
▁writers	-3944
Breakfast	-3945
Cognitive	-3946
Parkinson	-3947
Therefore	-3948
Wakefield	-3949
achusetts	-3950
enditures	-3951
gressions	-3952
iological	-3953
monstrate	-3954
typically	-3955
▁$18,700,	-3956
▁10,1981.	-3957
▁Airlines	-3958
▁Argument	-3959
▁Autobahn	-3960
▁Berkeley	-3961
▁Brisbane	-3962
▁Canadian	-3963
▁Colorado	-3964
▁Computer	-3965
▁December	-3966
▁Deloitte	-3967
▁Festival	-3968
▁Football	-3969
▁Ghomeshi	-3970
▁Giravanz	-3971
▁Grinding	-3972
▁Heartbre	-3973
▁Hospital	-3974
▁Illinois	-3975
▁Israelis	-3976
▁Jardines	-3977
▁Kathleen	-3978
▁Krampner	-3979
▁Lamongan	-3980
▁Margaret	-3981
▁Michelin	-3982
▁Montedio	-3983
▁Original	-3984
▁Patricia	-3985
▁Schreyer	-3986
▁Seminary	-3987
▁Software	-3988
▁Virginia	-3989
▁Woodlawn	-3990
▁Yamagata	-3991
▁Yorktown	-3992
▁academia	-3993
▁accounts	-3994
▁addition	-3995
▁although	-3996
▁analysis	-3997
▁answered	-3998
▁aversion	-3999
▁becoming	-4000
▁benefits	-4001
▁birthday	-4002
▁breakout	-4003
▁building	-4004
▁business	-4005
▁caretake	-4006
▁changing	-4007
▁channels	-4008
▁clusters	-4009
▁codefest	-4010
▁collapse	-4011
▁combined	-4012
▁consumer	-4013
▁consumes	-4014
▁continue	-4015
▁converts	-4016
▁creation	-4017
▁credited	-4018
▁culinary	-4019
▁datathon	-4020
▁describe	-4021
▁diameter	-4022
▁directly	-4023
▁domestic	-4024
▁enhanced	-4025
▁expected	-4026
▁exporter	-4027
▁extended	-4028
▁featured	-4029
▁followed	-4030
▁fragrant	-4031
▁governed	-4032
▁hackfest	-4033
▁improves	-4034
▁included	-4035
▁insights	-4036
▁intended	-4037
▁interact	-4038
▁leverage	-4039
▁location	-4040
▁majority	-4041
▁manually	-4042
▁marathon	-4043
▁marriage	-4044
▁marrying	-4045
▁maximise	-4046
▁meetings	-4047
▁metaphor	-4048
▁mistakes	-4049
▁networks	-4050
▁operates	-4051
▁original	-4052
▁paddocks	-4053
▁pandemic	-4054
▁pitchers	-4055
▁planning	-4056
▁pleading	-4057
▁possible	-4058
▁prepared	-4059
▁proposal	-4060
▁provides	-4061
▁puffcorn	-4062
▁purposes	-4063
▁received	-4064
▁regional	-4065
▁released	-4066
▁required	-4067
▁research	-4068
▁returned	-4069
▁revealed	-4070
▁rosemary	-4071
▁scenario	-4072
▁securing	-4073
▁sexually	-4074
▁shortage	-4075
▁societal	-4076
▁southern	-4077
▁speaking	-4078
▁spending	-4079
▁suddenly	-4080
▁suggests	-4081
▁terminus	-4082
▁tracking	-4083
▁unplaced	-4084
▁unsuperv	-4085
▁versions	-4086
▁welcomes	-4087
Everything	-4088
inbreeding	-4089
olutionize	-4090
production	-4091
▁($13,600)	-4092
▁Answering	-4093
▁Berkshire	-4094
▁Claverack	-4095
▁Community	-4096
▁Developed	-4097
▁Different	-4098
▁Dominguez	-4099
▁Effective	-4100
▁Ellingham	-4101
▁Furzehill	-4102
▁Gobardhan	-4103
▁Gymkhanas	-4104
▁Hampshire	-4105
▁Harbridge	-4106
▁Housewife	-4107
▁Indonesia	-4108
▁Jefferson	-4109
▁Lamiaceae	-4110
▁Melbourne	-4111
▁Metabolic	-4112
▁Metallica	-4113
▁Nationals	-4114
▁Retention	-4115
▁Searchers	-4116
▁Silvester	-4117
▁Stratford	-4118
▁Whittaker	-4119
▁administr	-4120
▁advantage	-4121
▁allergies	-4122
▁ambiguity	-4123
▁assaulted	-4124
▁assistant	-4125
▁attending	-4126
▁attention	-4127
▁blueberry	-4128
▁childhood	-4129
▁collected	-4130
▁companies	-4131
▁completed	-4132
▁conceived	-4133
▁condiment	-4134
▁conducted	-4135
▁consumers	-4136
▁corollary	-4137
▁decreases	-4138
▁defeating	-4139
▁detailing	-4140
▁developed	-4141
▁developer	-4142
▁difficult	-4143
▁digestion	-4144
▁diversity	-4145
▁employees	-4146
▁estimates	-4147
▁evergreen	-4148
▁evolution	-4149
▁excluding	-4150
▁expensive	-4151
▁extension	-4152
▁fictional	-4153
▁generated	-4154
▁godfather	-4155
▁gradually	-4156
▁implement	-4157
▁incidence	-4158
▁increased	-4159
▁inhabited	-4160
▁integrate	-4161
▁intensity	-4162
▁knowledge	-4163
▁materials	-4164
▁medicinal	-4165
▁necessary	-4166
▁neighbors	-4167
▁nonprofit	-4168
▁organizer	-4169
▁otherwise	-4170
▁overnight	-4171
▁permitted	-4172
▁platforms	-4173
▁practices	-4174
▁predicted	-4175
▁presented	-4176
▁primarily	-4177
▁prominent	-4178
▁purchased	-4179
▁qualities	-4180
▁reactions	-4181
▁recording	-4182
▁regularly	-4183
▁releasing	-4184
▁relegated	-4185
▁reproduce	-4186
▁retention	-4187
▁scenarios	-4188
▁scientist	-4189
▁scoreless	-4190
▁semantics	-4191
▁sentiment	-4192
▁situation	-4193
▁spotlight	-4194
▁succeeded	-4195
▁supported	-4196
▁surpassed	-4197
▁temporary	-4198
▁transport	-4199
▁unlabeled	-4200
▁visualize	-4201
▁worldwide	-4202
▁yellowish	-4203
Outbreeding	-4204
dimensional	-4205
outbreeding	-4206
▁($14,900).	-4207
▁Additional	-4208
▁Adventures	-4209
▁Australian	-4210
▁California	-4211
▁Conversely	-4212
▁Designated	-4213
▁Dorchester	-4214
▁Fitzgerald	-4215
▁Foxhunters	-4216
▁Generation	-4217
▁Hackathons	-4218
▁Increasing	-4219
▁Kinderhook	-4220
▁Kitakyushu	-4221
▁Montgomery	-4222
▁Munchausen	-4223
▁Paddington	-4224
▁Performers	-4225
▁Predicting	-4226
▁Prefecture	-4227
▁Procedural	-4228
▁Repetitive	-4229
▁Rosmarinus	-4230
▁Siegelmann	-4231
▁activities	-4232
▁algorithms	-4233
▁approaches	-4234
▁associated	-4235
▁beneficial	-4236
▁capability	-4237
▁categorize	-4238
▁chronicled	-4239
▁classifier	-4240
▁colleagues	-4241
▁collecting	-4242
▁commercial	-4243
▁complexity	-4244
▁considered	-4245
▁consisting	-4246
▁definition	-4247
▁discussion	-4248
▁disproport	-4249
▁dramatizes	-4250
▁elderberry	-4251
▁elementary	-4252
▁eventually	-4253
▁experience	-4254
▁frameworks	-4255
▁generation	-4256
▁graduating	-4257
▁headliners	-4258
▁implicitly	-4259
▁inbreeding	-4260
▁increasing	-4261
▁indicating	-4262
▁integrated	-4263
▁linguistic	-4264
▁moderation	-4265
▁neglecting	-4266
▁officiated	-4267
▁operations	-4268
▁passengers	-4269
▁performing	-4270
▁physically	-4271
▁prediction	-4272
▁proportion	-4273
▁remarkable	-4274
▁reportedly	-4275
▁reputation	-4276
▁retirement	-4277
▁rosmarinus	-4278
▁salesforce	-4279
▁scheduling	-4280
▁scientific	-4281
▁settlement	-4282
▁songwriter	-4283
▁statistics	-4284
▁strategies	-4285
▁subsequent	-4286
▁suggestion	-4287
▁summarised	-4288
▁surrounded	-4289
▁technology	-4290
▁television	-4291
▁undertaken	-4292
▁wealthiest	-4293
respectively	-4294
▁(1881-1935)	-4295
▁Bridgestone	-4296
▁Cruickshank	-4297
▁Earthquakes	-4298
▁Netherlands	-4299
▁Predictable	-4300
▁Provincials	-4301
▁Rathpatrick	-4302
▁Summarising	-4303
▁accelerates	-4304
▁appearances	-4305
▁behavioural	-4306
▁biochemical	-4307
▁businessman	-4308
▁complicated	-4309
▁considering	-4310
▁constituted	-4311
▁contrasting	-4312
▁conversions	-4313
▁demographic	-4314
▁demonstrate	-4315
▁differences	-4316
▁documentary	-4317
▁environment	-4318
▁explanation	-4319
▁genetically	-4320
▁interchange	-4321
▁measurement	-4322
▁millimetres	-4323
▁officiating	-4324
▁officinalis	-4325
▁omnichannel	-4326
▁outbreeding	-4327
▁participant	-4328
▁participate	-4329
▁pomegranate	-4330
▁popularised	-4331
▁portmanteau	-4332
▁predictable	-4333
▁preferences	-4334
▁publication	-4335
▁reproducing	-4336
▁restriction	-4337
▁schoolhouse	-4338
▁statistical	-4339
probabilistic	-4340
▁Chervonenkis	-4341
▁Commercially	-4342
▁Commissioner	-4343
▁Distribution	-4344
▁Laboratories	-4345
▁Lollapalooze	-4346
▁Professional	-4347
▁Relationship	-4348
▁Segmentation	-4349
▁Williamsburg	-4350
▁acceleration	-4351
▁achievements	-4352
▁appellations	-4353
▁championship	-4354
▁collaborates	-4355
▁contribution	-4356
▁expenditures	-4357
▁geographical	-4358
▁interactions	-4359
▁organization	-4360
▁participates	-4361
▁personalized	-4362
▁progressions	-4363
▁relationship	-4364
▁reproduction	-4365
▁respectively	-4366
▁screenwriter	-4367
▁technologies	-4368
▁unsupervised	-4369
▁Fordingbridge	-4370
▁Heartbreakers	-4371
▁Massachusetts	-4372
▁Mediterranean	-4373
▁approximately	-4374
▁autobiography	-4375
▁collaborative	-4376
▁physiological	-4377
▁probabilistic	-4378
▁revolutionize	-4379
▁administrative	-4380
▁evolutionarily	-4381
($	-4382
(2	-4383
(9	-4384
,0	-4385
,1	-4386
,4	-4387
,7	-4388
.3	-4389
.4	-4390
.8	-4391
/ˈ	-4392
01	-4393
1)	-4394
1-	-4395
10	-4396
12	-4397
15	-4398
16	-4399
(3	-4400
(6	-4401
22	-4402
23	-4403
24	-4404
25	-4405
30	-4406
31	-4407
32	-4408
34	-4409
36	-4410
39	-4411
4.	-4412
40	-4413
50	-4414
55	-4415
56	-4416
57	-4417
6.	-4418
63	-4419
64	-4420
65	-4421
71	-4422
75	-4423
76	-4424
77	-4425
78	-4426
7;	-4427
89	-4428
92	-4429
93	-4430
95	-4431
96	-4432
98	-4433
99	-4434
AI	-4435
AP	-4436
Ac	-4437
Ad	-4438
Af	-4439
Al	-4440
Am	-4441
An	-4442
Ap	-4443
Ar	-4444
As	-4445
At	-4446
Au	-4447
Aw	-4448
BV	-4449
Ba	-4450
Be	-4451
Bh	-4452
Bi	-4453
Bl	-4454
Bo	-4455
Bu	-4456
CH	-4457
CR	-4458
Ca	-4459
Ce	-4460
Ch	-4461
Ci	-4462
Co	-4463
Cr	-4464
Cu	-4465
Cy	-4466
Da	-4467
De	-4468
Di	-4469
Do	-4470
Dr	-4471
Du	-4472
Dy	-4473
Ea	-4474
Ef	-4475
Ei	-4476
Em	-4477
En	-4478
Ey	-4479
FA	-4480
FC	-4481
Fa	-4482
Fe	-4483
Fi	-4484
Fr	-4485
Fu	-4486
GT	-4487
Ga	-4488
Ge	-4489
Gi	-4490
Gl	-4491
Go	-4492
Gr	-4493
Ha	-4494
He	-4495
Hi	-4496
Ho	-4497
Hy	-4498
Ib	-4499
3-	-4500
3–	-4501
48	-4502
4–	-4503
Eu	-4504
Il	-4505
Ir	-4506
Is	-4507
It	-4508
Ja	-4509
Je	-4510
Jo	-4511
Ju	-4512
Ke	-4513
Ki	-4514
Ko	-4515
Kr	-4516
Ku	-4517
Ky	-4518
LA	-4519
LL	-4520
La	-4521
Le	-4522
Li	-4523
Lo	-4524
Lt	-4525
MD	-4526
ML	-4527
Ma	-4528
Mi	-4529
Mo	-4530
Ms	-4531
Mu	-4532
Na	-4533
Ne	-4534
Ni	-4535
Oc	-4536
Of	-4537
Og	-4538
Ou	-4539
Ov	-4540
Pa	-4541
Pe	-4542
Ph	-4543
Pi	-4544
Pl	-4545
Po	-4546
Pr	-4547
Pt	-4548
Pu	-4549
RU	-4550
Re	-4551
Ri	-4552
Ro	-4553
Ru	-4554
SV	-4555
Sa	-4556
Sc	-4557
Se	-4558
Sh	-4559
Si	-4560
Sm	-4561
So	-4562
Sp	-4563
St	-4564
TV	-4565
Ta	-4566
Te	-4567
Th	-4568
Ti	-4569
To	-4570
Tr	-4571
Tw	-4572
UK	-4573
UM	-4574
US	-4575
Un	-4576
VC	-4577
Va	-4578
Vi	-4579
Vl	-4580
Wa	-4581
We	-4582
Wh	-4583
Wi	-4584
Yo	-4585
Zy	-4586
ae	-4587
af	-4588
aj	-4589
aɪ	-4590
be	-4591
bi	-4592
bu	-4593
ca	-4594
cc	-4595
ci	-4596
cl	-4597
cu	-4598
cy	-4599
")	-4600
(/	-4601
(0	-4602
(1	-4603
,6	-4604
,9	-4605
.0	-4606
/)	-4607
0)	-4608
08	-4609
11	-4610
14	-4611
18	-4612
1–	-4613
33	-4614
35	-4615
70	-4616
88	-4617
90	-4618
Av	-4619
Ev	-4620
Me	-4621
Ra	-4622
SA	-4623
bj	-4624
da	-4625
db	-4626
dg	-4627
di	-4628
dl	-4629
dm	-4630
do	-4631
dt	-4632
dv	-4633
dw	-4634
dy	-4635
eS	-4636
ea	-4637
eb	-4638
ee	-4639
ef	-4640
eh	-4641
ei	-4642
eo	-4643
eq	-4644
ev	-4645
ex	-4646
fa	-4647
fc	-4648
fe	-4649
fi	-4650
fl	-4651
fo	-4652
fr	-4653
fs	-4654
fu	-4655
fy	-4656
ga	-4657
gb	-4658
gg	-4659
gi	-4660
gl	-4661
gm	-4662
gn	-4663
go	-4664
gs	-4665
gt	-4666
hc	-4667
hd	-4668
hm	-4669
hp	-4670
hq	-4671
ht	-4672
iq	-4673
iə	-4674
je	-4675
jo	-4676
ju	-4677
ka	-4678
kf	-4679
kh	-4680
ki	-4681
kl	-4682
kt	-4683
ku	-4684
ky	-4685
lb	-4686
lc	-4687
lf	-4688
lg	-4689
li	-4690
lk	-4691
lm	-4692
lp	-4693
ls	-4694
lt	-4695
lv	-4696
lw	-4697
ma	-4698
mb	-4699
(5	-4700
,8	-4701
.1	-4702
.2	-4703
0-	-4704
04	-4705
06	-4706
07	-4707
09	-4708
26	-4709
28	-4710
38	-4711
4)	-4712
46	-4713
49	-4714
54	-4715
58	-4716
8)	-4717
80	-4718
82	-4719
86	-4720
9,	-4721
Hu	-4722
ID	-4723
Ka	-4724
Or	-4725
Ot	-4726
WR	-4727
dp	-4728
gy	-4729
hy	-4730
me	-4731
mk	-4732
ml	-4733
mm	-4734
mo	-4735
mu	-4736
my	-4737
na	-4738
nb	-4739
nc	-4740
nf	-4741
nh	-4742
ni	-4743
nk	-4744
nl	-4745
nm	-4746
nn	-4747
no	-4748
np	-4749
nr	-4750
ns	-4751
nu	-4752
nv	-4753
ny	-4754
nz	-4755
oa	-4756
od	-4757
oe	-4758
oh	-4759
oi	-4760
oj	-4761
ov	-4762
oz	-4763
pi	-4764
pl	-4765
pm	-4766
pn	-4767
po	-4768
pu	-4769
rb	-4770
rc	-4771
rd	-4772
rf	-4773
rg	-4774
rh	-4775
rk	-4776
rl	-4777
rm	-4778
rn	-4779
rp	-4780
rr	-4781
rs	-4782
rt	-4783
rv	-4784
rw	-4785
rz	-4786
sa	-4787
sc	-4788
sf	-4789
sk	-4790
sl	-4791
sm	-4792
sn	-4793
sp	-4794
sr	-4795
sy	-4796
ta	-4797
tb	-4798
tc	-4799
-2	-4800
.7	-4801
61	-4802
AT	-4803
Ab	-4804
Ai	-4805
CO	-4806
Cl	-4807
EY	-4808
El	-4809
Ex	-4810
FY	-4811
Fo	-4812
Gh	-4813
Gu	-4814
Gy	-4815
If	-4816
Ji	-4817
Jr	-4818
OV	-4819
Oi	-4820
RO	-4821
RW	-4822
Su	-4823
Sw	-4824
Sy	-4825
Wo	-4826
Ya	-4827
Ye	-4828
cs	-4829
dh	-4830
hl	-4831
iu	-4832
ko	-4833
ox	-4834
tf	-4835
ti	-4836
tl	-4837
tm	-4838
tn	-4839
tu	-4840
tw	-4841
tz	-4842
ua	-4843
uf	-4844
ui	-4845
uj	-4846
uo	-4847
va	-4848
vo	-4849
vy	-4850
wa	-4851
we	-4852
wi	-4853
wl	-4854
wr	-4855
ws	-4856
xa	-4857
xc	-4858
xi	-4859
xo	-4860
xp	-4861
yc	-4862
yd	-4863
yi	-4864
yk	-4865
yo	-4866
yr	-4867
yt	-4868
yu	-4869
yz	-4870
zg	-4871
zs	-4872
əp	-4873
əs	-4874
ɪl	-4875
ɪn	-4876
ɪs	-4877
–1	-4878
–2	-4879
–6	-4880
–9	-4881
▁$	-4882
▁/	-4883
▁0	-4884
▁8	-4885
▁i	-4886
▁u	-4887
,00	-4888
0.8	-4889
8,0	-4890
Ban	-4891
Bil	-4892
But	-4893
Car	-4894
Cen	-4895
Cit	-4896
Con	-4897
Das	-4898
Ear	-4899
')	-4900
eɪ	-4901
gw	-4902
hb	-4903
lh	-4904
nw	-4905
tp	-4906
wb	-4907
xu	-4908
▁q	-4909
Ben	-4910
Che	-4911
Eas	-4912
Far	-4913
Fas	-4914
Fes	-4915
Fin	-4916
Fit	-4917
For	-4918
Fut	-4919
Gir	-4920
Har	-4921
Hil	-4922
Ind	-4923
Jam	-4924
Jar	-4925
Jen	-4926
Jer	-4927
Jon	-4928
Kam	-4929
Kat	-4930
Kin	-4931
Lad	-4932
Lam	-4933
Lar	-4934
Lat	-4935
Les	-4936
Man	-4937
Mar	-4938
Mas	-4939
Med	-4940
Mon	-4941
Nat	-4942
Nor	-4943
Par	-4944
Pet	-4945
Pin	-4946
Pir	-4947
Pou	-4948
Pro	-4949
Rat	-4950
Res	-4951
Ric	-4952
Riv	-4953
Sal	-4954
San	-4955
She	-4956
Tre	-4957
Vir	-4958
Wan	-4959
Whe	-4960
Win	-4961
aha	-4962
aig	-4963
alo	-4964
als	-4965
alu	-4966
ama	-4967
amb	-4968
anl	-4969
anu	-4970
apa	-4971
apm	-4972
aps	-4973
ara	-4974
arc	-4975
arn	-4976
asu	-4977
atc	-4978
ati	-4979
atl	-4980
att	-4981
bes	-4982
bin	-4983
bol	-4984
bon	-4985
bus	-4986
cal	-4987
cel	-4988
cha	-4989
chi	-4990
cin	-4991
com	-4992
cre	-4993
cts	-4994
den	-4995
der	-4996
dic	-4997
din	-4998
dla	-4999
Ber	-5000
Bon	-5001
Cal	-5002
Don	-5003
Her	-5004
Hon	-5005
Ker	-5006
Kon	-5007
Lon	-5008
Per	-5009
Pre	-5010
Ser	-5011
Son	-5012
Ter	-5013
Wes	-5014
con	-5015
des	-5016
don	-5017
dre	-5018
dul	-5019
eal	-5020
eam	-5021
eca	-5022
ece	-5023
eci	-5024
edi	-5025
edn	-5026
eds	-5027
edu	-5028
edy	-5029
eel	-5030
eer	-5031
ein	-5032
eit	-5033
elm	-5034
ena	-5035
enl	-5036
enm	-5037
eno	-5038
enu	-5039
era	-5040
erb	-5041
erc	-5042
erd	-5043
erf	-5044
erg	-5045
erh	-5046
eri	-5047
erk	-5048
erm	-5049
ern	-5050
ert	-5051
ery	-5052
ese	-5053
esh	-5054
eta	-5055
eti	-5056
fal	-5057
far	-5058
fas	-5059
fin	-5060
fly	-5061
ged	-5062
ger	-5063
ghe	-5064
gic	-5065
giv	-5066
gom	-5067
gra	-5068
hat	-5069
hea	-5070
hee	-5071
hei	-5072
hen	-5073
heo	-5074
het	-5075
hey	-5076
hin	-5077
hir	-5078
hit	-5079
hon	-5080
hre	-5081
hts	-5082
icl	-5083
icu	-5084
ien	-5085
iff	-5086
ils	-5087
ilw	-5088
inb	-5089
inc	-5090
inf	-5091
inh	-5092
ini	-5093
inn	-5094
inp	-5095
int	-5096
inu	-5097
inv	-5098
ira	-5099
And	-5100
Bre	-5101
Gre	-5102
Mat	-5103
Oct	-5104
Pat	-5105
Und	-5106
ali	-5107
ato	-5108
atr	-5109
atu	-5110
bas	-5111
bou	-5112
cat	-5113
ckf	-5114
cou	-5115
dat	-5116
del	-5117
dge	-5118
eat	-5119
enc	-5120
fat	-5121
gat	-5122
gle	-5123
gre	-5124
iat	-5125
irg	-5126
irt	-5127
isb	-5128
isc	-5129
its	-5130
ivi	-5131
kat	-5132
ker	-5133
kes	-5134
ket	-5135
kin	-5136
kis	-5137
lac	-5138
las	-5139
lau	-5140
ldw	-5141
lec	-5142
lee	-5143
lem	-5144
ler	-5145
lev	-5146
lex	-5147
lie	-5148
lif	-5149
lin	-5150
lla	-5151
lon	-5152
lor	-5153
loy	-5154
lub	-5155
ləp	-5156
lɪs	-5157
mam	-5158
mas	-5159
mat	-5160
med	-5161
men	-5162
mic	-5163
mil	-5164
mis	-5165
mle	-5166
mor	-5167
mos	-5168
nam	-5169
nar	-5170
nat	-5171
nde	-5172
ndi	-5173
ndl	-5174
nds	-5175
net	-5176
nin	-5177
nla	-5178
nol	-5179
nor	-5180
nre	-5181
oad	-5182
oar	-5183
obi	-5184
ock	-5185
ods	-5186
olh	-5187
olu	-5188
omp	-5189
ona	-5190
onc	-5191
oni	-5192
onl	-5193
onm	-5194
onp	-5195
ons	-5196
ont	-5197
onv	-5198
ooj	-5199
Bar	-5200
Bes	-5201
Des	-5202
Fal	-5203
Fed	-5204
Mic	-5205
Red	-5206
Yam	-5207
ana	-5208
arl	-5209
ars	-5210
bar	-5211
bil	-5212
car	-5213
cep	-5214
cor	-5215
ded	-5216
ede	-5217
edg	-5218
edl	-5219
ees	-5220
esc	-5221
esf	-5222
esi	-5223
eso	-5224
fes	-5225
gam	-5226
ges	-5227
har	-5228
hic	-5229
iti	-5230
lar	-5231
leb	-5232
lef	-5233
mes	-5234
nal	-5235
nes	-5236
oes	-5237
ool	-5238
orc	-5239
org	-5240
ori	-5241
orl	-5242
ors	-5243
oug	-5244
owl	-5245
pas	-5246
pel	-5247
pes	-5248
phe	-5249
pic	-5250
pin	-5251
pis	-5252
pit	-5253
ply	-5254
pon	-5255
pot	-5256
ppi	-5257
ppo	-5258
pre	-5259
pse	-5260
raf	-5261
rag	-5262
ral	-5263
ran	-5264
rat	-5265
rea	-5266
rec	-5267
red	-5268
ref	-5269
reg	-5270
rel	-5271
rem	-5272
rep	-5273
req	-5274
ret	-5275
rev	-5276
rig	-5277
rla	-5278
roc	-5279
rog	-5280
roi	-5281
roj	-5282
ron	-5283
roo	-5284
rop	-5285
ros	-5286
rot	-5287
rou	-5288
rra	-5289
rre	-5290
sar	-5291
sed	-5292
ser	-5293
ses	-5294
set	-5295
she	-5296
sia	-5297
sin	-5298
soc	-5299
Dis	-5300
Gen	-5301
His	-5302
Ken	-5303
Sar	-5304
Vis	-5305
ais	-5306
arr	-5307
cen	-5308
cid	-5309
cis	-5310
dis	-5311
dro	-5312
enh	-5313
enn	-5314
enz	-5315
fan	-5316
fen	-5317
gen	-5318
his	-5319
hle	-5320
isa	-5321
isi	-5322
isl	-5323
ism	-5324
isp	-5325
isu	-5326
kid	-5327
mal	-5328
nen	-5329
nis	-5330
nit	-5331
ois	-5332
ols	-5333
orm	-5334
rar	-5335
roa	-5336
sen	-5337
sis	-5338
sle	-5339
son	-5340
sta	-5341
ste	-5342
sts	-5343
sum	-5344
sus	-5345
tad	-5346
tan	-5347
tar	-5348
tat	-5349
tes	-5350
tex	-5351
thd	-5352
the	-5353
tic	-5354
tis	-5355
tit	-5356
tiv	-5357
tla	-5358
tle	-5359
tra	-5360
tre	-5361
tro	-5362
tte	-5363
tur	-5364
uak	-5365
uar	-5366
uat	-5367
ubs	-5368
uck	-5369
uen	-5370
uff	-5371
uic	-5372
uis	-5373
unc	-5374
unp	-5375
uns	-5376
urn	-5377
urz	-5378
usu	-5379
utb	-5380
uto	-5381
utt	-5382
van	-5383
var	-5384
vas	-5385
ves	-5386
vic	-5387
vid	-5388
vit	-5389
war	-5390
wat	-5391
wed	-5392
wel	-5393
wen	-5394
wer	-5395
wes	-5396
wid	-5397
wif	-5398
win	-5399
$18	-5400
76,	-5401
Bal	-5402
Bas	-5403
Cor	-5404
Gal	-5405
Gor	-5406
Hal	-5407
Lit	-5408
Nic	-5409
Nit	-5410
Por	-5411
Tor	-5412
VMs	-5413
Wen	-5414
Yor	-5415
ald	-5416
aly	-5417
bal	-5418
ban	-5419
ben	-5420
cro	-5421
env	-5422
enw	-5423
hal	-5424
hor	-5425
itc	-5426
ken	-5427
oal	-5428
oas	-5429
omb	-5430
opi	-5431
ora	-5432
oro	-5433
orp	-5434
oru	-5435
pad	-5436
por	-5437
ppe	-5438
sal	-5439
sit	-5440
siv	-5441
tal	-5442
tor	-5443
uok	-5444
val	-5445
wis	-5446
won	-5447
wor	-5448
xat	-5449
xin	-5450
xis	-5451
yed	-5452
yer	-5453
yin	-5454
yla	-5455
yon	-5456
yre	-5457
yst	-5458
yus	-5459
zat	-5460
zed	-5461
zer	-5462
zes	-5463
▁(9	-5464
▁26	-5465
▁35	-5466
▁3–	-5467
▁46	-5468
▁Ai	-5469
▁Ap	-5470
▁At	-5471
▁Av	-5472
▁Bh	-5473
▁CR	-5474
▁Da	-5475
▁EY	-5476
▁Ef	-5477
▁Em	-5478
▁En	-5479
▁Fe	-5480
▁Hi	-5481
▁Hy	-5482
▁Il	-5483
▁Ja	-5484
▁Ki	-5485
▁Ku	-5486
▁Ky	-5487
▁Lo	-5488
▁ML	-5489
▁Mi	-5490
▁Mu	-5491
▁Pa	-5492
▁Pu	-5493
▁RO	-5494
▁Ru	-5495
▁Ta	-5496
▁Te	-5497
▁Ti	-5498
▁Wo	-5499
Bro	-5500
Can	-5501
Cro	-5502
Dan	-5503
Dec	-5504
Fro	-5505
Jan	-5506
Kit	-5507
Oit	-5508
Van	-5509
Was	-5510
Wil	-5511
ani	-5512
ank	-5513
ano	-5514
any	-5515
ash	-5516
ask	-5517
bic	-5518
bit	-5519
dan	-5520
git	-5521
gro	-5522
has	-5523
hol	-5524
hro	-5525
idu	-5526
itl	-5527
itn	-5528
lav	-5529
lig	-5530
lso	-5531
nic	-5532
oit	-5533
ras	-5534
rob	-5535
rod	-5536
sic	-5537
uts	-5538
wan	-5539
xit	-5540
▁Aw	-5541
▁CH	-5542
▁LA	-5543
▁af	-5544
▁ai	-5545
▁ap	-5546
▁au	-5547
▁av	-5548
▁aw	-5549
▁ba	-5550
▁bl	-5551
▁bo	-5552
▁ca	-5553
▁ce	-5554
▁ci	-5555
▁cr	-5556
▁cu	-5557
▁dy	-5558
▁ei	-5559
▁es	-5560
▁fa	-5561
▁fi	-5562
▁fl	-5563
▁fo	-5564
▁fu	-5565
▁gr	-5566
▁hi	-5567
▁ho	-5568
▁im	-5569
▁jo	-5570
▁ke	-5571
▁ly	-5572
▁mp	-5573
▁mu	-5574
▁ni	-5575
▁ol	-5576
▁om	-5577
▁op	-5578
▁ot	-5579
▁ou	-5580
▁ov	-5581
▁ow	-5582
▁pa	-5583
▁pi	-5584
▁po	-5585
▁pr	-5586
▁sa	-5587
▁ta	-5588
▁tu	-5589
▁ty	-5590
▁ve	-5591
▁wa	-5592
▁wi	-5593
▁wo	-5594
▁wr	-5595
$13,	-5596
$14,	-5597
2019	-5598
840.	-5599
Fam	-5600
Hou	-5601
Pla	-5602
Sou	-5603
Vla	-5604
You	-5605
amo	-5606
bro	-5607
bst	-5608
cki	-5609
gla	-5610
hou	-5611
idg	-5612
lad	-5613
lai	-5614
leg	-5615
lle	-5616
nst	-5617
oma	-5618
rof	-5619
rox	-5620
rro	-5621
rst	-5622
sla	-5623
sto	-5624
you	-5625
▁AP	-5626
▁Af	-5627
▁Ce	-5628
▁Cr	-5629
▁Cu	-5630
▁El	-5631
▁Ib	-5632
▁Og	-5633
▁To	-5634
▁Tw	-5635
▁da	-5636
▁dh	-5637
▁di	-5638
▁dr	-5639
▁du	-5640
King	-5641
Sing	-5642
West	-5643
Youn	-5644
aded	-5645
ager	-5646
airf	-5647
aken	-5648
akou	-5649
alis	-5650
alit	-5651
alla	-5652
alys	-5653
amle	-5654
amou	-5655
ampn	-5656
anad	-5657
anas	-5658
anat	-5659
anen	-5660
angh	-5661
anis	-5662
anle	-5663
apab	-5664
aran	-5665
arat	-5666
arbr	-5667
ardh	-5668
ardw	-5669
aren	-5670
arin	-5671
aris	-5672
arka	-5673
arro	-5674
artb	-5675
aset	-5676
asic	-5677
asis	-5678
assa	-5679
asur	-5680
atas	-5681
atat	-5682
ateg	-5683
athe	-5684
atis	-5685
atur	-5686
bard	-5687
blic	-5688
bout	-5689
ceiv	-5690
ched	-5691
chre	-5692
chus	-5693
ckat	-5694
ckie	-5695
cted	-5696
ctic	-5697
ctor	-5698
dent	-5699
Bel	-5700
Del	-5701
Dom	-5702
Fag	-5703
Kom	-5704
Mel	-5705
Rel	-5706
ael	-5707
ami	-5708
bel	-5709
cti	-5710
ctr	-5711
eli	-5712
els	-5713
emy	-5714
gel	-5715
hom	-5716
idf	-5717
iel	-5718
iou	-5719
kou	-5720
mou	-5721
nct	-5722
ngu	-5723
omm	-5724
omo	-5725
otb	-5726
tom	-5727
uct	-5728
yel	-5729
▁(6	-5730
▁SA	-5731
▁SV	-5732
▁Sa	-5733
▁Sc	-5734
▁Se	-5735
▁Si	-5736
▁Sp	-5737
▁Su	-5738
▁Sy	-5739
▁el	-5740
arry	-5741
atel	-5742
core	-5743
dney	-5744
eare	-5745
eart	-5746
eber	-5747
eded	-5748
eder	-5749
edic	-5750
edin	-5751
edle	-5752
edur	-5753
eers	-5754
eigh	-5755
eing	-5756
elag	-5757
elat	-5758
elds	-5759
eled	-5760
eler	-5761
elis	-5762
elon	-5763
enar	-5764
ends	-5765
ened	-5766
ener	-5767
enes	-5768
enou	-5769
enre	-5770
enti	-5771
entl	-5772
ents	-5773
epal	-5774
epte	-5775
erag	-5776
erat	-5777
eren	-5778
eric	-5779
erin	-5780
erou	-5781
erro	-5782
erry	-5783
erse	-5784
erst	-5785
esel	-5786
esig	-5787
esou	-5788
esti	-5789
etab	-5790
etal	-5791
ethe	-5792
etim	-5793
etit	-5794
evel	-5795
ewor	-5796
fits	-5797
ford	-5798
gage	-5799
Gol	-5800
Lol	-5801
Met	-5802
Net	-5803
Pol	-5804
Ret	-5805
cet	-5806
ctl	-5807
ctu	-5808
eet	-5809
eth	-5810
ety	-5811
ext	-5812
gha	-5813
iol	-5814
irc	-5815
ird	-5816
irf	-5817
met	-5818
mir	-5819
olo	-5820
olv	-5821
rac	-5822
sul	-5823
vol	-5824
▁17	-5825
▁Ko	-5826
▁Ph	-5827
▁ga	-5828
▁hu	-5829
anol	-5830
enet	-5831
etic	-5832
etre	-5833
etro	-5834
gher	-5835
ging	-5836
gion	-5837
hann	-5838
hart	-5839
head	-5840
heat	-5841
hedd	-5842
heel	-5843
herr	-5844
hest	-5845
ican	-5846
icat	-5847
icia	-5848
icit	-5849
icon	-5850
icta	-5851
ided	-5852
ifor	-5853
ighb	-5854
igit	-5855
ilds	-5856
ilis	-5857
ilit	-5858
illb	-5859
ilty	-5860
imar	-5861
imat	-5862
imil	-5863
imin	-5864
imir	-5865
impa	-5866
impl	-5867
inal	-5868
inap	-5869
inar	-5870
inat	-5871
inen	-5872
iner	-5873
ingb	-5874
inge	-5875
ingh	-5876
ingl	-5877
ingt	-5878
inhe	-5879
inin	-5880
inis	-5881
inst	-5882
ioni	-5883
ipal	-5884
ipan	-5885
ipat	-5886
irat	-5887
ishe	-5888
isla	-5889
ison	-5890
itak	-5891
itar	-5892
itat	-5893
iter	-5894
ithe	-5895
ithm	-5896
itic	-5897
itis	-5898
itor	-5899
0.9	-5900
Bam	-5901
Div	-5902
Dut	-5903
Eil	-5904
Giv	-5905
Ham	-5906
Pil	-5907
Ram	-5908
ams	-5909
cam	-5910
chu	-5911
div	-5912
eiv	-5913
hun	-5914
ilo	-5915
ilt	-5916
ipl	-5917
liv	-5918
mul	-5919
nch	-5920
niv	-5921
oil	-5922
phy	-5923
pil	-5924
rch	-5925
ril	-5926
riv	-5927
sew	-5928
tch	-5929
uce	-5930
utp	-5931
utu	-5932
vil	-5933
wiv	-5934
xam	-5935
▁Bu	-5936
▁ea	-5937
▁ef	-5938
▁gu	-5939
▁lo	-5940
amat	-5941
amet	-5942
amil	-5943
amin	-5944
amon	-5945
aril	-5946
atch	-5947
ativ	-5948
chan	-5949
chas	-5950
chin	-5951
dens	-5952
eley	-5953
erch	-5954
eriv	-5955
heir	-5956
iron	-5957
itiv	-5958
ivel	-5959
ivit	-5960
izer	-5961
king	-5962
lace	-5963
leag	-5964
lear	-5965
leas	-5966
lems	-5967
lied	-5968
lies	-5969
ligh	-5970
ling	-5971
lion	-5972
llin	-5973
lows	-5974
lude	-5975
mary	-5976
mber	-5977
ming	-5978
mong	-5979
mplo	-5980
ndem	-5981
ndin	-5982
ndit	-5983
ndon	-5984
ndre	-5985
nell	-5986
ners	-5987
nigh	-5988
nony	-5989
ocal	-5990
olle	-5991
omat	-5992
onal	-5993
onar	-5994
onat	-5995
onds	-5996
onen	-5997
oner	-5998
oney	-5999
akf	-6000
idd	-6001
kly	-6002
owe	-6003
pid	-6004
sid	-6005
tly	-6006
xid	-6007
▁($	-6008
▁(0	-6009
▁23	-6010
▁28	-6011
▁Du	-6012
▁Gy	-6013
▁Ha	-6014
▁Ho	-6015
▁Ji	-6016
▁Ju	-6017
▁Mo	-6018
▁Pl	-6019
▁Po	-6020
▁Pt	-6021
Best	-6022
Fest	-6023
anag	-6024
arag	-6025
arib	-6026
arly	-6027
atly	-6028
ctly	-6029
dber	-6030
esta	-6031
ests	-6032
fers	-6033
gers	-6034
iden	-6035
kers	-6036
laim	-6037
mers	-6038
mmer	-6039
onin	-6040
onle	-6041
onor	-6042
onst	-6043
ooza	-6044
ooze	-6045
oped	-6046
orar	-6047
orat	-6048
oric	-6049
orid	-6050
orit	-6051
orle	-6052
orne	-6053
orol	-6054
orto	-6055
oser	-6056
oses	-6057
osso	-6058
oted	-6059
ouns	-6060
oust	-6061
owar	-6062
owis	-6063
pell	-6064
pens	-6065
pent	-6066
pers	-6067
ping	-6068
pion	-6069
ples	-6070
ppel	-6071
pper	-6072
ppro	-6073
ramp	-6074
rape	-6075
real	-6076
rect	-6077
reed	-6078
reer	-6079
rein	-6080
rele	-6081
rell	-6082
rely	-6083
resp	-6084
rest	-6085
rict	-6086
rief	-6087
ries	-6088
rinc	-6089
ring	-6090
rish	-6091
roac	-6092
road	-6093
rope	-6094
rose	-6095
rout	-6096
sary	-6097
sche	-6098
sent	-6099
Gag	-6100
Kag	-6101
Wad	-6102
adu	-6103
agr	-6104
agu	-6105
cad	-6106
ead	-6107
eag	-6108
eig	-6109
gad	-6110
gag	-6111
iag	-6112
idt	-6113
ifi	-6114
igr	-6115
igu	-6116
jun	-6117
nia	-6118
nig	-6119
ote	-6120
pte	-6121
rau	-6122
sig	-6123
tag	-6124
tea	-6125
teg	-6126
tev	-6127
tew	-6128
uag	-6129
xte	-6130
▁BV	-6131
▁Ba	-6132
▁Bl	-6133
▁Br	-6134
▁Ga	-6135
▁Ge	-6136
▁Gr	-6137
▁Gu	-6138
agat	-6139
aged	-6140
agra	-6141
ante	-6142
berr	-6143
ecif	-6144
gend	-6145
icag	-6146
lass	-6147
lead	-6148
lete	-6149
orad	-6150
qual	-6151
rail	-6152
rain	-6153
rass	-6154
root	-6155
seph	-6156
sess	-6157
shmi	-6158
sing	-6159
sion	-6160
sist	-6161
star	-6162
sten	-6163
stin	-6164
stit	-6165
stom	-6166
stru	-6167
tage	-6168
tedi	-6169
tend	-6170
tenh	-6171
tens	-6172
tent	-6173
ters	-6174
test	-6175
thou	-6176
tion	-6177
tire	-6178
uent	-6179
uest	-6180
uffc	-6181
ulin	-6182
ulti	-6183
unce	-6184
unit	-6185
uoka	-6186
urch	-6187
ures	-6188
urre	-6189
used	-6190
ustr	-6191
uted	-6192
uyon	-6193
vent	-6194
verd	-6195
verg	-6196
vert	-6197
vest	-6198
vice	-6199
0.4	-6200
197	-6201
bik	-6202
cke	-6203
clu	-6204
imb	-6205
imo	-6206
lim	-6207
sra	-6208
tim	-6209
tow	-6210
ulu	-6211
use	-6212
ush	-6213
usi	-6214
uss	-6215
▁La	-6216
▁Lt	-6217
▁RW	-6218
▁Ra	-6219
apid	-6220
atus	-6221
come	-6222
ffic	-6223
hers	-6224
herv	-6225
herw	-6226
iage	-6227
imen	-6228
imis	-6229
imit	-6230
lark	-6231
lust	-6232
onth	-6233
pare	-6234
rais	-6235
rive	-6236
tera	-6237
usen	-6238
uses	-6239
uset	-6240
vide	-6241
vine	-6242
went	-6243
wers	-6244
xist	-6245
xper	-6246
ycle	-6247
yell	-6248
ying	-6249
ylin	-6250
ynam	-6251
ynon	-6252
yone	-6253
youn	-6254
ɪnəs	-6255
▁(16	-6256
▁(18	-6257
▁0.0	-6258
▁0–6	-6259
▁191	-6260
▁61–	-6261
▁Air	-6262
▁Ans	-6263
▁Ant	-6264
▁Aut	-6265
▁Bal	-6266
▁Bam	-6267
▁Ban	-6268
▁Bar	-6269
▁Bas	-6270
▁Bel	-6271
▁Bil	-6272
▁Blu	-6273
▁Bon	-6274
▁Bul	-6275
▁Bus	-6276
▁CHU	-6277
▁Cal	-6278
▁Cec	-6279
▁Cen	-6280
▁Che	-6281
▁Cit	-6282
▁Col	-6283
▁Cor	-6284
▁Cou	-6285
▁Cro	-6286
▁Del	-6287
▁Dis	-6288
▁Div	-6289
▁Dom	-6290
▁Dut	-6291
▁Fal	-6292
▁Far	-6293
▁Fas	-6294
▁Fin	-6295
▁Fro	-6296
▁Fut	-6297
▁Gag	-6298
▁Gir	-6299
81.	-6300
Eun	-6301
Wak	-6302
aks	-6303
cce	-6304
eak	-6305
ecs	-6306
ecu	-6307
eop	-6308
how	-6309
ngl	-6310
now	-6311
oak	-6312
rce	-6313
una	-6314
uni	-6315
unn	-6316
xce	-6317
▁Di	-6318
▁Dy	-6319
▁Fa	-6320
▁Fu	-6321
Kong	-6322
aker	-6323
alia	-6324
cean	-6325
ecam	-6326
eces	-6327
ecis	-6328
ecom	-6329
econ	-6330
ecre	-6331
elop	-6332
gres	-6333
join	-6334
long	-6335
ober	-6336
once	-6337
ongw	-6338
orce	-6339
osel	-6340
owed	-6341
phic	-6342
quak	-6343
text	-6344
unch	-6345
unic	-6346
unla	-6347
unst	-6348
xten	-6349
▁Das	-6350
▁DeS	-6351
▁Fam	-6352
▁Fit	-6353
▁Giv	-6354
▁Gol	-6355
▁Gra	-6356
▁Gre	-6357
▁Hal	-6358
▁Ham	-6359
▁Hig	-6360
▁Hil	-6361
▁Hon	-6362
▁Hos	-6363
▁Int	-6364
▁Jam	-6365
▁Jap	-6366
▁Jar	-6367
▁Jer	-6368
▁Kam	-6369
▁Kat	-6370
▁Ker	-6371
▁Kin	-6372
▁Kob	-6373
▁Kum	-6374
▁LAF	-6375
▁Lad	-6376
▁Lak	-6377
▁Lar	-6378
▁Lat	-6379
▁Leg	-6380
▁Les	-6381
▁Lit	-6382
▁Lol	-6383
▁Lon	-6384
▁Mar	-6385
▁Mas	-6386
▁Med	-6387
▁Mel	-6388
▁Mid	-6389
▁Mot	-6390
▁Mus	-6391
▁Nic	-6392
▁Pad	-6393
▁Par	-6394
▁Pet	-6395
▁Pil	-6396
▁Pin	-6397
▁Pla	-6398
▁Por	-6399
bur	-6400
ckl	-6401
emb	-6402
epp	-6403
kur	-6404
neɪ	-6405
oot	-6406
opu	-6407
ota	-6408
ppl	-6409
top	-6410
upp	-6411
urp	-6412
urr	-6413
2021	-6414
Nort	-6415
amot	-6416
ecur	-6417
edia	-6418
fine	-6419
gani	-6420
gine	-6421
hort	-6422
ineg	-6423
oard	-6424
ogam	-6425
oper	-6426
opul	-6427
orel	-6428
orot	-6429
ortm	-6430
oten	-6431
over	-6432
rack	-6433
rics	-6434
rock	-6435
terf	-6436
urro	-6437
vera	-6438
very	-6439
vore	-6440
▁0.8	-6441
▁Dur	-6442
▁Fur	-6443
▁Jud	-6444
▁Kom	-6445
▁Loo	-6446
▁Pou	-6447
▁Pow	-6448
▁Rat	-6449
▁Rep	-6450
▁Rev	-6451
▁Ric	-6452
▁Riv	-6453
▁Sal	-6454
▁Say	-6455
▁Ser	-6456
▁Sha	-6457
▁Sil	-6458
▁Som	-6459
▁Son	-6460
▁Sou	-6461
▁Tor	-6462
▁Tre	-6463
▁Und	-6464
▁Unt	-6465
▁Vap	-6466
▁Wad	-6467
▁Wan	-6468
▁Wen	-6469
▁Wil	-6470
▁Win	-6471
▁Yam	-6472
▁abs	-6473
▁ach	-6474
▁act	-6475
▁alb	-6476
▁alc	-6477
▁alg	-6478
▁als	-6479
▁alt	-6480
▁alv	-6481
▁amb	-6482
▁ans	-6483
▁arg	-6484
▁art	-6485
▁ask	-6486
▁asp	-6487
▁atm	-6488
▁ato	-6489
▁aut	-6490
▁bab	-6491
▁ban	-6492
▁bef	-6493
▁beg	-6494
▁beh	-6495
▁ben	-6496
▁bes	-6497
▁bet	-6498
▁bic	-6499
Bha	-6500
bse	-6501
gul	-6502
say	-6503
sep	-6504
seq	-6505
▁Eu	-6506
▁Ey	-6507
Eart	-6508
arth	-6509
arts	-6510
egle	-6511
emin	-6512
essf	-6513
essm	-6514
gare	-6515
gram	-6516
gues	-6517
iate	-6518
icul	-6519
lary	-6520
lten	-6521
oist	-6522
pate	-6523
plic	-6524
sear	-6525
sity	-6526
uate	-6527
uist	-6528
well	-6529
xity	-6530
▁Nit	-6531
▁Str	-6532
▁Woo	-6533
▁bik	-6534
▁bin	-6535
▁bir	-6536
▁bla	-6537
▁blu	-6538
▁boo	-6539
▁bor	-6540
▁bot	-6541
▁bra	-6542
▁bre	-6543
▁bul	-6544
▁bus	-6545
▁cal	-6546
▁cam	-6547
▁car	-6548
▁cas	-6549
▁cat	-6550
▁cay	-6551
▁cen	-6552
▁che	-6553
▁chr	-6554
▁cit	-6555
▁civ	-6556
▁cou	-6557
▁dan	-6558
▁deb	-6559
▁dev	-6560
▁div	-6561
▁dra	-6562
▁dro	-6563
▁dur	-6564
▁eas	-6565
▁eat	-6566
▁eig	-6567
▁ele	-6568
▁ena	-6569
▁exc	-6570
▁fal	-6571
▁fas	-6572
▁fat	-6573
▁fes	-6574
▁fic	-6575
▁fil	-6576
▁fin	-6577
▁fir	-6578
▁fiv	-6579
▁fle	-6580
▁foo	-6581
▁fou	-6582
▁fra	-6583
▁fro	-6584
▁fru	-6585
▁ful	-6586
▁fut	-6587
▁gam	-6588
▁ger	-6589
▁giv	-6590
▁god	-6591
▁gra	-6592
▁hal	-6593
▁har	-6594
▁hea	-6595
▁hel	-6596
▁hig	-6597
▁hol	-6598
▁hom	-6599
hap	-6600
ift	-6601
ium	-6602
kie	-6603
lth	-6604
mia	-6605
ooz	-6606
rib	-6607
rth	-6608
rts	-6609
sif	-6610
thi	-6611
tip	-6612
umm	-6613
ump	-6614
ums	-6615
0.03	-6616
amia	-6617
apit	-6618
bour	-6619
chip	-6620
coun	-6621
ects	-6622
ectu	-6623
esia	-6624
gini	-6625
hain	-6626
hich	-6627
iace	-6628
ilip	-6629
ints	-6630
iour	-6631
moun	-6632
nich	-6633
ounc	-6634
ourn	-6635
phor	-6636
rial	-6637
sive	-6638
uage	-6639
umer	-6640
▁dee	-6641
▁doc	-6642
▁fif	-6643
▁hor	-6644
▁hou	-6645
▁inb	-6646
▁inh	-6647
▁ini	-6648
▁inp	-6649
▁ins	-6650
▁iss	-6651
▁ite	-6652
▁jud	-6653
▁ker	-6654
▁lan	-6655
▁lar	-6656
▁las	-6657
▁lea	-6658
▁lef	-6659
▁leg	-6660
▁les	-6661
▁lev	-6662
▁lin	-6663
▁lit	-6664
▁liv	-6665
▁lon	-6666
▁mad	-6667
▁mak	-6668
▁max	-6669
▁mil	-6670
▁min	-6671
▁mis	-6672
▁mor	-6673
▁mov	-6674
▁mul	-6675
▁nam	-6676
▁net	-6677
▁nic	-6678
▁nig	-6679
▁nin	-6680
▁nor	-6681
▁nur	-6682
▁oft	-6683
▁onl	-6684
▁org	-6685
▁pad	-6686
▁pag	-6687
▁pas	-6688
▁pen	-6689
▁phr	-6690
▁pin	-6691
▁plu	-6692
▁pol	-6693
▁pom	-6694
▁pon	-6695
▁por	-6696
▁pow	-6697
▁pra	-6698
▁pun	-6699
eew	-6700
eve	-6701
ewb	-6702
ios	-6703
los	-6704
osm	-6705
oss	-6706
tax	-6707
vem	-6708
-193	-6709
corn	-6710
ecem	-6711
edge	-6712
emia	-6713
enue	-6714
erve	-6715
idge	-6716
inue	-6717
ires	-6718
lage	-6719
oint	-6720
orge	-6721
osal	-6722
outb	-6723
ppos	-6724
pres	-6725
rast	-6726
sign	-6727
torn	-6728
veal	-6729
▁Lab	-6730
▁Sue	-6731
▁abo	-6732
▁hav	-6733
▁phy	-6734
▁rea	-6735
▁rec	-6736
▁red	-6737
▁ref	-6738
▁rem	-6739
▁rep	-6740
▁req	-6741
▁rob	-6742
▁rod	-6743
▁rou	-6744
▁sag	-6745
▁sal	-6746
▁sam	-6747
▁san	-6748
▁sch	-6749
▁sci	-6750
▁sel	-6751
▁sem	-6752
▁sen	-6753
▁sep	-6754
▁sev	-6755
▁sib	-6756
▁sid	-6757
▁sin	-6758
▁sit	-6759
▁soc	-6760
▁sof	-6761
▁sol	-6762
▁som	-6763
▁spa	-6764
▁spo	-6765
▁spr	-6766
▁sta	-6767
▁sto	-6768
▁str	-6769
▁stu	-6770
▁sty	-6771
▁sud	-6772
▁sup	-6773
▁tak	-6774
▁tel	-6775
▁tem	-6776
▁ter	-6777
▁tes	-6778
▁tho	-6779
▁thu	-6780
▁tim	-6781
▁tou	-6782
▁tow	-6783
▁tre	-6784
▁tun	-6785
▁usu	-6786
▁val	-6787
▁var	-6788
▁vas	-6789
▁vic	-6790
▁vil	-6791
▁wan	-6792
▁wat	-6793
▁wel	-6794
▁wen	-6795
▁wer	-6796
▁wes	-6797
▁whi	-6798
▁wid	-6799
Bik	-6800
abl	-6801
bab	-6802
ftw	-6803
ght	-6804
hie	-6805
iev	-6806
ioc	-6807
lik	-6808
loc	-6809
nik	-6810
oft	-6811
rie	-6812
▁Ov	-6813
▁ye	-6814
abol	-6815
akef	-6816
aloo	-6817
ampa	-6818
amps	-6819
east	-6820
hamp	-6821
hire	-6822
ieve	-6823
illi	-6824
lant	-6825
mail	-6826
oass	-6827
oche	-6828
otab	-6829
raft	-6830
ritt	-6831
roup	-6832
shan	-6833
uced	-6834
uire	-6835
uper	-6836
▁Joh	-6837
▁Pub	-6838
▁Sie	-6839
▁Tik	-6840
▁foc	-6841
▁lik	-6842
▁maj	-6843
▁old	-6844
▁pub	-6845
▁pup	-6846
▁wil	-6847
▁wit	-6848
▁wor	-6849
▁wou	-6850
00,00	-6851
Other	-6852
ackat	-6853
ackie	-6854
agers	-6855
aging	-6856
akout	-6857
allag	-6858
allic	-6859
amlet	-6860
amoto	-6861
ample	-6862
anada	-6863
anate	-6864
anced	-6865
anent	-6866
anish	-6867
antic	-6868
arate	-6869
arded	-6870
ardin	-6871
areer	-6872
arges	-6873
aried	-6874
ariou	-6875
arish	-6876
arkab	-6877
arkin	-6878
arned	-6879
arrow	-6880
arted	-6881
artic	-6882
assed	-6883
assen	-6884
assic	-6885
assif	-6886
aster	-6887
asury	-6888
atedn	-6889
atfor	-6890
atist	-6891
ature	-6892
berty	-6893
bited	-6894
bject	-6895
cated	-6896
ccess	-6897
cedur	-6898
chaus	-6899
0).	-6900
00.	-6901
1),	-6902
4).	-6903
400	-6904
600	-6905
700	-6906
9),	-6907
900	-6908
Off	-6909
duc	-6910
eff	-6911
eog	-6912
hav	-6913
iqu	-6914
jud	-6915
ney	-6916
rgu	-6917
zeh	-6918
duce	-6919
guil	-6920
ible	-6921
lebr	-6922
mall	-6923
nack	-6924
neas	-6925
omeg	-6926
quic	-6927
quid	-6928
rodu	-6929
site	-6930
sley	-6931
▁Aug	-6932
▁Bha	-6933
▁Oct	-6934
▁Oit	-6935
▁shr	-6936
aller	-6937
ccord	-6938
chine	-6939
ckath	-6940
cking	-6941
comes	-6942
ctice	-6943
cting	-6944
ctive	-6945
eanut	-6946
ecame	-6947
ecess	-6948
ecial	-6949
ecome	-6950
econd	-6951
ected	-6952
ectiv	-6953
ecure	-6954
eding	-6955
edles	-6956
eight	-6957
elong	-6958
ement	-6959
enhan	-6960
ening	-6961
enres	-6962
ensiv	-6963
entar	-6964
entat	-6965
enten	-6966
enter	-6967
entif	-6968
entim	-6969
entis	-6970
ently	-6971
entre	-6972
entur	-6973
eople	-6974
erber	-6975
erent	-6976
erfor	-6977
erial	-6978
eries	-6979
erran	-6980
errit	-6981
ersel	-6982
ersit	-6983
esfor	-6984
esign	-6985
esour	-6986
essay	-6987
esses	-6988
estab	-6989
estim	-6990
estiv	-6991
eston	-6992
etail	-6993
etent	-6994
eters	-6995
ethan	-6996
ether	-6997
eties	-6998
eting	-6999
,19	-7000
019	-7001
193	-7002
196	-7003
85.	-7004
iog	-7005
mog	-7006
ogn	-7007
ogy	-7008
udg	-7009
udi	-7010
xog	-7011
Need	-7012
ario	-7013
asks	-7014
earc	-7015
ears	-7016
eeds	-7017
erks	-7018
fens	-7019
ogic	-7020
rind	-7021
xide	-7022
▁(5.	-7023
▁28,	-7024
▁Yor	-7025
▁adm	-7026
▁env	-7027
▁syn	-7028
arged	-7029
ariet	-7030
arios	-7031
ddict	-7032
earan	-7033
eeded	-7034
eedle	-7035
eloit	-7036
enned	-7037
etres	-7038
ettle	-7039
etwor	-7040
feren	-7041
ffect	-7042
ffers	-7043
forms	-7044
genda	-7045
geral	-7046
ginia	-7047
gland	-7048
gment	-7049
graph	-7050
grate	-7051
guage	-7052
hanas	-7053
hangh	-7054
herla	-7055
hield	-7056
hould	-7057
iated	-7058
ichan	-7059
ichel	-7060
icial	-7061
ictab	-7062
icted	-7063
ictim	-7064
ictor	-7065
iding	-7066
ience	-7067
ieved	-7068
iffer	-7069
iforn	-7070
igest	-7071
ights	-7072
ildre	-7073
iling	-7074
ilish	-7075
ilist	-7076
illes	-7077
illie	-7078
illim	-7079
imens	-7080
imise	-7081
imore	-7082
imple	-7083
imply	-7084
impro	-7085
inate	-7086
inbre	-7087
inear	-7088
ineer	-7089
inent	-7090
iners	-7091
iness	-7092
ingbr	-7093
ingle	-7094
ingue	-7095
inist	-7096
ionar	-7097
ionat	-7098
ionsh	-7099
0.0	-7100
40.	-7101
oba	-7102
plo	-7103
uoy	-7104
▁4.	-7105
▁4–	-7106
▁6.	-7107
ache	-7108
aseb	-7109
athp	-7110
dlaw	-7111
ethn	-7112
gras	-7113
hnst	-7114
irac	-7115
mmar	-7116
orkt	-7117
ropr	-7118
tegr	-7119
▁400	-7120
▁Apr	-7121
▁Dep	-7122
▁Fox	-7123
▁Fuk	-7124
▁cli	-7125
▁fac	-7126
▁ris	-7127
▁unp	-7128
apids	-7129
arath	-7130
athle	-7131
buted	-7132
cessf	-7133
elder	-7134
enues	-7135
ervis	-7136
ffice	-7137
hough	-7138
ipant	-7139
ipate	-7140
iples	-7141
irate	-7142
irgin	-7143
ished	-7144
ision	-7145
islat	-7146
ispro	-7147
issel	-7148
istak	-7149
istan	-7150
istri	-7151
iterr	-7152
iters	-7153
ither	-7154
ithin	-7155
iting	-7156
ition	-7157
itish	-7158
itles	-7159
ittak	-7160
itted	-7161
ivals	-7162
kshan	-7163
laced	-7164
langu	-7165
lapal	-7166
lated	-7167
lativ	-7168
laund	-7169
laver	-7170
lease	-7171
leted	-7172
lever	-7173
licit	-7174
light	-7175
lines	-7176
lings	-7177
lling	-7178
lowed	-7179
luded	-7180
ludes	-7181
mante	-7182
marin	-7183
mical	-7184
nated	-7185
ndies	-7186
night	-7187
nment	-7188
ociet	-7189
ogies	-7190
oland	-7191
olley	-7192
ollow	-7193
ology	-7194
olore	-7195
omain	-7196
omate	-7197
omegr	-7198
omest	-7199
054	-7200
32,	-7201
hmi	-7202
ype	-7203
ajor	-7204
dmin	-7205
gain	-7206
gori	-7207
nown	-7208
nual	-7209
orpt	-7210
prob	-7211
prod	-7212
prof	-7213
remi	-7214
sbur	-7215
sult	-7216
uali	-7217
umpt	-7218
vinc	-7219
ypes	-7220
▁Alb	-7221
▁Ane	-7222
▁Kuk	-7223
▁Smi	-7224
▁agi	-7225
amous	-7226
andem	-7227
atche	-7228
chest	-7229
elman	-7230
ffici	-7231
icult	-7232
idual	-7233
isual	-7234
itche	-7235
ithms	-7236
lectr	-7237
minus	-7238
ommer	-7239
onicl	-7240
oning	-7241
onore	-7242
onpro	-7243
onstr	-7244
onted	-7245
onver	-7246
opies	-7247
orary	-7248
orate	-7249
orche	-7250
orded	-7251
ories	-7252
orith	-7253
ority	-7254
orldw	-7255
orley	-7256
ortag	-7257
ortan	-7258
orted	-7259
orter	-7260
osing	-7261
ospit	-7262
otent	-7263
ounty	-7264
ourth	-7265
ousin	-7266
oward	-7267
owers	-7268
owing	-7269
owish	-7270
pened	-7271
perat	-7272
pions	-7273
pment	-7274
posal	-7275
ppell	-7276
pplic	-7277
press	-7278
pring	-7279
produ	-7280
quent	-7281
quest	-7282
quire	-7283
races	-7284
rapes	-7285
raphy	-7286
rapid	-7287
rated	-7288
reate	-7289
reenw	-7290
refer	-7291
resid	-7292
rigin	-7293
rinit	-7294
riter	-7295
ritor	-7296
roced	-7297
roles	-7298
ruary	-7299
ails	-7300
ailw	-7301
aliz	-7302
avan	-7303
blem	-7304
erke	-7305
ilio	-7306
irds	-7307
izes	-7308
smar	-7309
tail	-7310
ucle	-7311
udio	-7312
uild	-7313
▁Add	-7314
▁Hav	-7315
▁SAR	-7316
▁Tih	-7317
▁dio	-7318
▁edu	-7319
▁uns	-7320
▁wee	-7321
anges	-7322
athes	-7323
blems	-7324
break	-7325
cials	-7326
enalt	-7327
ervic	-7328
obard	-7329
omput	-7330
orthc	-7331
quick	-7332
rosem	-7333
sburg	-7334
senal	-7335
sions	-7336
sland	-7337
sport	-7338
stard	-7339
stent	-7340
sters	-7341
strat	-7342
stric	-7343
terch	-7344
terro	-7345
therw	-7346
thing	-7347
tland	-7348
tment	-7349
uated	-7350
uilds	-7351
uling	-7352
ulted	-7353
ultip	-7354
umber	-7355
ument	-7356
umers	-7357
ummar	-7358
uncea	-7359
unded	-7360
under	-7361
unice	-7362
unior	-7363
unity	-7364
until	-7365
uperv	-7366
urpos	-7367
urzeh	-7368
using	-7369
ustom	-7370
utbre	-7371
ution	-7372
utput	-7373
utter	-7374
ventu	-7375
verag	-7376
vince	-7377
viour	-7378
vised	-7379
vored	-7380
wives	-7381
ximat	-7382
xtens	-7383
yland	-7384
ylind	-7385
▁(196	-7386
▁1,17	-7387
▁1919	-7388
▁1967	-7389
▁1977	-7390
▁1992	-7391
▁1993	-7392
▁1995	-7393
▁1997	-7394
▁2003	-7395
▁2005	-7396
▁2006	-7397
▁2007	-7398
▁2008	-7399
021	-7400
55.	-7401
840	-7402
OVI	-7403
Zyl	-7404
def	-7405
ode	-7406
tri	-7407
ddit	-7408
gada	-7409
rook	-7410
ween	-7411
▁(11	-7412
▁1,1	-7413
▁adv	-7414
apita	-7415
ciple	-7416
creas	-7417
endit	-7418
gomer	-7419
holic	-7420
jects	-7421
ladim	-7422
ountr	-7423
pener	-7424
spect	-7425
udied	-7426
verse	-7427
▁1984	-7428
▁2009	-7429
▁2017	-7430
▁2018	-7431
▁2019	-7432
▁Acad	-7433
▁Alic	-7434
▁Alth	-7435
▁Amer	-7436
▁Asle	-7437
▁Aust	-7438
▁Avis	-7439
▁Bost	-7440
▁Bure	-7441
▁Cari	-7442
▁Cens	-7443
▁Chan	-7444
▁Chap	-7445
▁Chic	-7446
▁Chie	-7447
▁Chil	-7448
▁Chin	-7449
▁Comm	-7450
▁Cort	-7451
▁Cour	-7452
▁Dang	-7453
▁Dist	-7454
▁Engl	-7455
▁Fast	-7456
▁Fest	-7457
▁Fore	-7458
▁Geor	-7459
▁Gord	-7460
▁Hamp	-7461
▁Inst	-7462
▁Isra	-7463
▁Jers	-7464
▁Jock	-7465
▁Kenm	-7466
▁King	-7467
▁Leag	-7468
▁Leew	-7469
▁Less	-7470
▁Lond	-7471
▁Mark	-7472
▁Mont	-7473
▁Must	-7474
▁Need	-7475
▁Nort	-7476
▁Pepp	-7477
▁Plat	-7478
▁Pres	-7479
▁Prof	-7480
▁Prov	-7481
▁Puer	-7482
▁Read	-7483
▁Runa	-7484
▁Scho	-7485
▁Sonn	-7486
▁Stad	-7487
▁Stan	-7488
▁Stat	-7489
▁Stew	-7490
▁Tham	-7491
▁Thes	-7492
▁Thom	-7493
▁Thro	-7494
▁Tomo	-7495
▁Unit	-7496
▁Univ	-7497
▁Vapn	-7498
▁Wadl	-7499
13,	-7500
3,4	-7501
897	-7502
96,	-7503
–97	-7504
▁7.	-7505
0,19	-7506
bean	-7507
enef	-7508
hock	-7509
ildh	-7510
oise	-7511
pend	-7512
radu	-7513
▁23,	-7514
81-19	-7515
bsley	-7516
fants	-7517
maris	-7518
ometh	-7519
osmar	-7520
osphe	-7521
posed	-7522
reakf	-7523
ttorn	-7524
urren	-7525
▁(198	-7526
▁1939	-7527
▁Aneg	-7528
▁Balt	-7529
▁Bris	-7530
▁Fitz	-7531
▁Howe	-7532
▁Nitz	-7533
▁Patr	-7534
▁Pref	-7535
▁Want	-7536
▁Youn	-7537
▁abil	-7538
▁abou	-7539
▁acad	-7540
▁agre	-7541
▁airc	-7542
▁aire	-7543
▁alco	-7544
▁alth	-7545
▁appe	-7546
▁appo	-7547
▁arch	-7548
▁aris	-7549
▁arra	-7550
▁assa	-7551
▁atom	-7552
▁aver	-7553
▁beca	-7554
▁beha	-7555
▁brou	-7556
▁brow	-7557
▁call	-7558
▁cann	-7559
▁carb	-7560
▁cham	-7561
▁char	-7562
▁cher	-7563
▁chil	-7564
▁chor	-7565
▁clos	-7566
▁coin	-7567
▁comb	-7568
▁cond	-7569
▁cont	-7570
▁conv	-7571
▁cred	-7572
▁desc	-7573
▁dhoo	-7574
▁dies	-7575
▁diff	-7576
▁dire	-7577
▁disc	-7578
▁dism	-7579
▁disp	-7580
▁doma	-7581
▁drin	-7582
▁eigh	-7583
▁endl	-7584
▁enou	-7585
▁ethn	-7586
▁evol	-7587
▁exam	-7588
▁exce	-7589
▁expl	-7590
▁fact	-7591
▁fare	-7592
▁fast	-7593
▁feel	-7594
▁fest	-7595
▁fram	-7596
▁gain	-7597
▁grow	-7598
▁guil	-7599
$14	-7600
03.	-7601
04,	-7602
0–2	-7603
0–6	-7604
201	-7605
269	-7606
34,	-7607
5,8	-7608
8,7	-7609
loe	-7610
mok	-7611
ysi	-7612
$18,	-7613
0–97	-7614
1-19	-7615
erto	-7616
swer	-7617
wans	-7618
▁0.9	-7619
▁2.2	-7620
▁61-	-7621
▁mix	-7622
aigns	-7623
gests	-7624
ggest	-7625
iracy	-7626
issed	-7627
itled	-7628
ndrew	-7629
nolog	-7630
orida	-7631
oroth	-7632
owled	-7633
rimar	-7634
rimin	-7635
shire	-7636
udget	-7637
▁Kind	-7638
▁Play	-7639
▁Weng	-7640
▁cele	-7641
▁heav	-7642
▁hist	-7643
▁hitt	-7644
▁hold	-7645
▁host	-7646
▁hour	-7647
▁hous	-7648
▁howe	-7649
▁inhe	-7650
▁isla	-7651
▁join	-7652
▁leag	-7653
▁leav	-7654
▁ling	-7655
▁litt	-7656
▁manu	-7657
▁mapp	-7658
▁mark	-7659
▁marr	-7660
▁meas	-7661
▁meta	-7662
▁meth	-7663
▁must	-7664
▁newb	-7665
▁nigh	-7666
▁offl	-7667
▁offs	-7668
▁orig	-7669
▁outs	-7670
▁peak	-7671
▁pean	-7672
▁peop	-7673
▁perc	-7674
▁perf	-7675
▁peri	-7676
▁perm	-7677
▁pers	-7678
▁pian	-7679
▁plac	-7680
▁poin	-7681
▁pond	-7682
▁prem	-7683
▁prep	-7684
▁pris	-7685
▁prob	-7686
▁proc	-7687
▁prod	-7688
▁prog	-7689
▁proj	-7690
▁prom	-7691
▁prop	-7692
▁pure	-7693
▁purp	-7694
▁rail	-7695
▁rais	-7696
▁reac	-7697
▁read	-7698
▁real	-7699
viə	-7700
ymk	-7701
ɪnə	-7702
addo	-7703
appi	-7704
ceae	-7705
iams	-7706
ibro	-7707
ranc	-7708
rops	-7709
visp	-7710
ɪlɪs	-7711
▁0–2	-7712
▁179	-7713
▁Meh	-7714
bbean	-7715
eptem	-7716
etrol	-7717
iamet	-7718
ietal	-7719
laims	-7720
river	-7721
thday	-7722
uicks	-7723
vonen	-7724
vonle	-7725
▁(197	-7726
▁1897	-7727
▁Bair	-7728
▁COVI	-7729
▁Dieg	-7730
▁Huck	-7731
▁Rapp	-7732
▁Sieg	-7733
▁guit	-7734
▁link	-7735
▁reas	-7736
▁rece	-7737
▁redu	-7738
▁rest	-7739
▁rose	-7740
▁rout	-7741
▁scal	-7742
▁scen	-7743
▁sche	-7744
▁scho	-7745
▁scor	-7746
▁scre	-7747
▁seas	-7748
▁sell	-7749
▁show	-7750
▁soft	-7751
▁spac	-7752
▁spic	-7753
▁spoo	-7754
▁spot	-7755
▁stag	-7756
▁stak	-7757
▁stap	-7758
▁stil	-7759
▁stra	-7760
▁subs	-7761
▁suit	-7762
▁supp	-7763
▁surp	-7764
▁syst	-7765
▁tech	-7766
▁tele	-7767
▁thei	-7768
▁theo	-7769
▁ther	-7770
▁thes	-7771
▁thou	-7772
▁thre	-7773
▁topp	-7774
▁trad	-7775
▁tran	-7776
▁tric	-7777
▁triv	-7778
▁unla	-7779
▁vast	-7780
▁vect	-7781
▁weal	-7782
▁webs	-7783
▁west	-7784
▁whet	-7785
▁whic	-7786
▁whit	-7787
▁yeas	-7788
▁yell	-7789
▁youn	-7790
00,000	-7791
8,700,	-7792
881-19	-7793
Nation	-7794
abited	-7795
ackath	-7796
agrant	-7797
ailing	-7798
ailway	-7799
fɪs	-7800
gby	-7801
600)	-7802
arah	-7803
bane	-7804
bigu	-7805
crib	-7806
dden	-7807
kidp	-7808
ossi	-7809
xhun	-7810
yees	-7811
▁Rug	-7812
▁zer	-7813
5,802	-7814
Sinap	-7815
agata	-7816
akyus	-7817
avanz	-7818
gdens	-7819
homes	-7820
itaky	-7821
llino	-7822
mnich	-7823
ochem	-7824
ogamy	-7825
omesh	-7826
orado	-7827
oroll	-7828
utoba	-7829
volut	-7830
▁Phil	-7831
▁Stev	-7832
▁synt	-7833
▁temp	-7834
Doroth	-7835
airfax	-7836
ammers	-7837
amming	-7838
amones	-7839
amples	-7840
anging	-7841
anners	-7842
anning	-7843
antage	-7844
antics	-7845
anuary	-7846
appier	-7847
arbrid	-7848
ardine	-7849
arents	-7850
argare	-7851
argest	-7852
arious	-7853
arised	-7854
arkins	-7855
arning	-7856
arthqu	-7857
assach	-7858
asseng	-7859
assica	-7860
assign	-7861
astern	-7862
ategor	-7863
ateral	-7864
atford	-7865
atform	-7866
athpat	-7867
atrick	-7868
atural	-7869
atured	-7870
blings	-7871
brated	-7872
bruary	-7873
bution	-7874
cation	-7875
cesses	-7876
chieve	-7877
choolh	-7878
chools	-7879
cially	-7880
ciples	-7881
corded	-7882
ctices	-7883
ctions	-7884
ctober	-7885
defest	-7886
dictab	-7887
eaking	-7888
eating	-7889
ecific	-7890
ection	-7891
ectors	-7892
ecture	-7893
ederal	-7894
edicin	-7895
eglect	-7896
elated	-7897
elbour	-7898
eliber	-7899
900).	-7900
chrey	-7901
ramat	-7902
urope	-7903
xhunt	-7904
ydney	-7905
▁Smok	-7906
▁buoy	-7907
▁guid	-7908
▁liqu	-7909
aborat	-7910
ddenly	-7911
elling	-7912
elmann	-7913
embers	-7914
enario	-7915
▁	-7916
e	-7917
a	-7918
t	-7919
n	-7920
i	-7921
o	-7922
s	-7923
r	-7924
h	-7925
l	-7926
d	-7927
c	-7928
u	-7929
m	-7930
g	-7931
p	-7932
f	-7933
y	-7934
w	-7935
,	-7936
b	-7937
.	-7938
v	-7939
k	-7940
1	-7941
0	-7942
T	-7943
2	-7944
C	-7945
S	-7946
I	-7947
A	-7948
9	-7949
x	-7950
M	-7951
-	-7952
H	-7953
B	-7954
:	-7955
(	-7956
)	-7957
J	-7958
P	-7959
L	-7960
6	-7961
G	-7962
V	-7963
"	-7964
3	-7965
R	-7966
U	-7967
D	-7968
W	-7969
'	-7970
F	-7971
K	-7972
N	-7973
z	-7974
4	-7975
5	-7976
7	-7977
8	-7978
E	-7979
?	-7980
j	-7981
;	-7982
O	-7983
/	-7984
Y	-7985
q	-7986
–	-7987
ə	-7988
ɪ	-7989
ˈ	-7990
Z	-7991
ˌ	-7992
$	-7993
&	-7994
[	-7995
